{
  "version": "1.0",
  "truncation": null,
  "padding": null,
  "added_tokens": [
    {
      "id": 0,
      "content": "<pad>",
      "single_word": false,
      "lstrip": false,
      "rstrip": false,
      "normalized": false,
      "special": true
    },
    {
      "id": 1,
      "content": "<bos>",
      "single_word": false,
      "lstrip": false,
      "rstrip": false,
      "normalized": false,
      "special": true
    },
    {
      "id": 2,
      "content": "<eos>",
      "single_word": false,
      "lstrip": false,
      "rstrip": false,
      "normalized": false,
      "special": true
    },
    {
      "id": 3,
      "content": "<unk>",
      "single_word": false,
      "lstrip": false,
      "rstrip": false,
      "normalized": false,
      "special": true
    },
    {
      "id": 4,
      "content": "<stats>",
      "single_word": false,
      "lstrip": false,
      "rstrip": false,
      "normalized": false,
      "special": true
    },
    {
      "id": 5,
      "content": "</stats>",
      "single_word": false,
      "lstrip": false,
      "rstrip": false,
      "normalized": false,
      "special": true
    },
    {
      "id": 6,
      "content": "<cronica>",
      "single_word": false,
      "lstrip": false,
      "rstrip": false,
      "normalized": false,
      "special": true
    },
    {
      "id": 7,
      "content": "</cronica>",
      "single_word": false,
      "lstrip": false,
      "rstrip": false,
      "normalized": false,
      "special": true
    },
    {
      "id": 8,
      "content": "<style:rioplatense_apasionado>",
      "single_word": false,
      "lstrip": false,
      "rstrip": false,
      "normalized": false,
      "special": true
    },
    {
      "id": 9,
      "content": "<style:rioplatense_tecnico>",
      "single_word": false,
      "lstrip": false,
      "rstrip": false,
      "normalized": false,
      "special": true
    },
    {
      "id": 10,
      "content": "<style:rioplatense_literario>",
      "single_word": false,
      "lstrip": false,
      "rstrip": false,
      "normalized": false,
      "special": true
    },
    {
      "id": 11,
      "content": "<style:mexicano_irreverente>",
      "single_word": false,
      "lstrip": false,
      "rstrip": false,
      "normalized": false,
      "special": true
    },
    {
      "id": 12,
      "content": "<style:mexicano_clasico>",
      "single_word": false,
      "lstrip": false,
      "rstrip": false,
      "normalized": false,
      "special": true
    },
    {
      "id": 13,
      "content": "<style:centroamericano_espn>",
      "single_word": false,
      "lstrip": false,
      "rstrip": false,
      "normalized": false,
      "special": true
    },
    {
      "id": 14,
      "content": "<style:espanol_radiofonico>",
      "single_word": false,
      "lstrip": false,
      "rstrip": false,
      "normalized": false,
      "special": true
    },
    {
      "id": 15,
      "content": "<style:comentario_tecnico>",
      "single_word": false,
      "lstrip": false,
      "rstrip": false,
      "normalized": false,
      "special": true
    }
  ],
  "normalizer": {
    "type": "Sequence",
    "normalizers": [
      {
        "type": "NFC"
      },
      {
        "type": "Replace",
        "pattern": {
          "String": "\\s+"
        },
        "content": " "
      }
    ]
  },
  "pre_tokenizer": {
    "type": "ByteLevel",
    "add_prefix_space": false,
    "trim_offsets": true,
    "use_regex": true
  },
  "post_processor": {
    "type": "ByteLevel",
    "add_prefix_space": true,
    "trim_offsets": false,
    "use_regex": true
  },
  "decoder": {
    "type": "ByteLevel",
    "add_prefix_space": true,
    "trim_offsets": true,
    "use_regex": true
  },
  "model": {
    "type": "BPE",
    "dropout": null,
    "unk_token": "<unk>",
    "continuing_subword_prefix": null,
    "end_of_word_suffix": null,
    "fuse_unk": false,
    "byte_fallback": false,
    "ignore_merges": false,
    "vocab": {
      "<pad>": 0,
      "<bos>": 1,
      "<eos>": 2,
      "<unk>": 3,
      "<stats>": 4,
      "</stats>": 5,
      "<cronica>": 6,
      "</cronica>": 7,
      "<style:rioplatense_apasionado>": 8,
      "<style:rioplatense_tecnico>": 9,
      "<style:rioplatense_literario>": 10,
      "<style:mexicano_irreverente>": 11,
      "<style:mexicano_clasico>": 12,
      "<style:centroamericano_espn>": 13,
      "<style:espanol_radiofonico>": 14,
      "<style:comentario_tecnico>": 15,
      "!": 16,
      "\"": 17,
      "#": 18,
      "$": 19,
      "%": 20,
      "&": 21,
      "'": 22,
      "(": 23,
      ")": 24,
      "*": 25,
      "+": 26,
      ",": 27,
      "-": 28,
      ".": 29,
      "/": 30,
      "0": 31,
      "1": 32,
      "2": 33,
      "3": 34,
      "4": 35,
      "5": 36,
      "6": 37,
      "7": 38,
      "8": 39,
      "9": 40,
      ":": 41,
      ";": 42,
      "<": 43,
      "=": 44,
      ">": 45,
      "?": 46,
      "@": 47,
      "A": 48,
      "B": 49,
      "C": 50,
      "D": 51,
      "E": 52,
      "F": 53,
      "G": 54,
      "H": 55,
      "I": 56,
      "J": 57,
      "K": 58,
      "L": 59,
      "M": 60,
      "N": 61,
      "O": 62,
      "P": 63,
      "Q": 64,
      "R": 65,
      "S": 66,
      "T": 67,
      "U": 68,
      "V": 69,
      "W": 70,
      "X": 71,
      "Y": 72,
      "Z": 73,
      "[": 74,
      "\\": 75,
      "]": 76,
      "^": 77,
      "_": 78,
      "`": 79,
      "a": 80,
      "b": 81,
      "c": 82,
      "d": 83,
      "e": 84,
      "f": 85,
      "g": 86,
      "h": 87,
      "i": 88,
      "j": 89,
      "k": 90,
      "l": 91,
      "m": 92,
      "n": 93,
      "o": 94,
      "p": 95,
      "q": 96,
      "r": 97,
      "s": 98,
      "t": 99,
      "u": 100,
      "v": 101,
      "w": 102,
      "x": 103,
      "y": 104,
      "z": 105,
      "{": 106,
      "|": 107,
      "}": 108,
      "~": 109,
      "¡": 110,
      "¢": 111,
      "£": 112,
      "¤": 113,
      "¥": 114,
      "¦": 115,
      "§": 116,
      "¨": 117,
      "©": 118,
      "ª": 119,
      "«": 120,
      "¬": 121,
      "®": 122,
      "¯": 123,
      "°": 124,
      "±": 125,
      "²": 126,
      "³": 127,
      "´": 128,
      "µ": 129,
      "¶": 130,
      "·": 131,
      "¸": 132,
      "¹": 133,
      "º": 134,
      "»": 135,
      "¼": 136,
      "½": 137,
      "¾": 138,
      "¿": 139,
      "À": 140,
      "Á": 141,
      "Â": 142,
      "Ã": 143,
      "Ä": 144,
      "Å": 145,
      "Æ": 146,
      "Ç": 147,
      "È": 148,
      "É": 149,
      "Ê": 150,
      "Ë": 151,
      "Ì": 152,
      "Í": 153,
      "Î": 154,
      "Ï": 155,
      "Ð": 156,
      "Ñ": 157,
      "Ò": 158,
      "Ó": 159,
      "Ô": 160,
      "Õ": 161,
      "Ö": 162,
      "×": 163,
      "Ø": 164,
      "Ù": 165,
      "Ú": 166,
      "Û": 167,
      "Ü": 168,
      "Ý": 169,
      "Þ": 170,
      "ß": 171,
      "à": 172,
      "á": 173,
      "â": 174,
      "ã": 175,
      "ä": 176,
      "å": 177,
      "æ": 178,
      "ç": 179,
      "è": 180,
      "é": 181,
      "ê": 182,
      "ë": 183,
      "ì": 184,
      "í": 185,
      "î": 186,
      "ï": 187,
      "ð": 188,
      "ñ": 189,
      "ò": 190,
      "ó": 191,
      "ô": 192,
      "õ": 193,
      "ö": 194,
      "÷": 195,
      "ø": 196,
      "ù": 197,
      "ú": 198,
      "û": 199,
      "ü": 200,
      "ý": 201,
      "þ": 202,
      "ÿ": 203,
      "Ā": 204,
      "ā": 205,
      "Ă": 206,
      "ă": 207,
      "Ą": 208,
      "ą": 209,
      "Ć": 210,
      "ć": 211,
      "Ĉ": 212,
      "ĉ": 213,
      "Ċ": 214,
      "ċ": 215,
      "Č": 216,
      "č": 217,
      "Ď": 218,
      "ď": 219,
      "Đ": 220,
      "đ": 221,
      "Ē": 222,
      "ē": 223,
      "Ĕ": 224,
      "ĕ": 225,
      "Ė": 226,
      "ė": 227,
      "Ę": 228,
      "ę": 229,
      "Ě": 230,
      "ě": 231,
      "Ĝ": 232,
      "ĝ": 233,
      "Ğ": 234,
      "ğ": 235,
      "Ġ": 236,
      "ġ": 237,
      "Ģ": 238,
      "ģ": 239,
      "Ĥ": 240,
      "ĥ": 241,
      "Ħ": 242,
      "ħ": 243,
      "Ĩ": 244,
      "ĩ": 245,
      "Ī": 246,
      "ī": 247,
      "Ĭ": 248,
      "ĭ": 249,
      "Į": 250,
      "į": 251,
      "İ": 252,
      "ı": 253,
      "Ĳ": 254,
      "ĳ": 255,
      "Ĵ": 256,
      "ĵ": 257,
      "Ķ": 258,
      "ķ": 259,
      "ĸ": 260,
      "Ĺ": 261,
      "ĺ": 262,
      "Ļ": 263,
      "ļ": 264,
      "Ľ": 265,
      "ľ": 266,
      "Ŀ": 267,
      "ŀ": 268,
      "Ł": 269,
      "ł": 270,
      "Ń": 271,
      "Ġe": 272,
      "de": 273,
      "Ġde": 274,
      "Ġl": 275,
      "on": 276,
      "en": 277,
      "ta": 278,
      "ar": 279,
      "Ġa": 280,
      "er": 281,
      "Ã³": 282,
      "Ġc": 283,
      "es": 284,
      "un": 285,
      "do": 286,
      "Ġs": 287,
      "Ġel": 288,
      "an": 289,
      "in": 290,
      "Ġp": 291,
      "ue": 292,
      "Ġen": 293,
      "os": 294,
      "al": 295,
      "ci": 296,
      "Ġla": 297,
      "Ġun": 298,
      "or": 299,
      "Ġm": 300,
      "tr": 301,
      "te": 302,
      "ol": 303,
      "as": 304,
      "que": 305,
      "ti": 306,
      "ĠC": 307,
      "Ġque": 308,
      "Ġse": 309,
      "is": 310,
      "ic": 311,
      "ĠS": 312,
      "Ġcon": 313,
      "re": 314,
      "da": 315,
      "di": 316,
      "Ã¡": 317,
      "le": 318,
      "Ġf": 319,
      "ĠA": 320,
      "Ġv": 321,
      "ri": 322,
      "to": 323,
      "Ġes": 324,
      "ĠL": 325,
      "mp": 326,
      "Ġy": 327,
      "ch": 328,
      "ĠF": 329,
      "Ġlos": 330,
      "Ġdel": 331,
      "li": 332,
      "res": 333,
      "Ġg": 334,
      "Ã³n": 335,
      "tro": 336,
      "ĠM": 337,
      "ÃŃ": 338,
      "Ġ(": 339,
      "ten": 340,
      "bi": 341,
      "Ġpar": 342,
      "Ġ-": 343,
      "lu": 344,
      "ĊĠ": 345,
      "Ġ2": 346,
      "</": 347,
      "Ġsu": 348,
      "tan": 349,
      "ĠB": 350,
      "oc": 351,
      "ĠE": 352,
      "ado": 353,
      "om": 354,
      "lub": 355,
      "tb": 356,
      "Ġuna": 357,
      "inu": 358,
      "Ġdes": 359,
      "ra": 360,
      "ul": 361,
      "Ġminu": 362,
      "ando": 363,
      "Ġ1": 364,
      "ica": 365,
      "Ġal": 366,
      "Ã©": 367,
      "sta": 368,
      "ron": 369,
      "Ġn": 370,
      "Ġre": 371,
      "ĠClub": 372,
      "Ġh": 373,
      "ga": 374,
      "ts": 375,
      "ocal": 376,
      "ui": 377,
      "cia": 378,
      "tos": 379,
      "ĠR": 380,
      "TA": 381,
      "STA": 382,
      "ĠD": 383,
      "TS": 384,
      "cron": 385,
      "stats": 386,
      "STATS": 387,
      "cronica": 388,
      "el": 389,
      "ro": 390,
      "ĠP": 391,
      "Ġd": 392,
      "isi": 393,
      "Ġenc": 394,
      "dio": 395,
      "ciÃ³n": 396,
      "ia": 397,
      "all": 398,
      "tado": 399,
      "ec": 400,
      "go": 401,
      "Ġin": 402,
      "la": 403,
      "arc": 404,
      "Ġgol": 405,
      "ter": 406,
      "vi": 407,
      "uen": 408,
      "qui": 409,
      "ba": 410,
      "Ãº": 411,
      "us": 412,
      "isitan": 413,
      "Ã¡r": 414,
      "ÃŃa": 415,
      "Ġno": 416,
      "Ã¡rbi": 417,
      "Ã¡rbitro": 418,
      "si": 419,
      "cion": 420,
      "ĠG": 421,
      "cha": 422,
      "Ġtr": 423,
      "am": 424,
      "esta": 425,
      "Ġ20": 426,
      "tu": 427,
      "oo": 428,
      "Ġb": 429,
      "Ġj": 430,
      "ente": 431,
      "Ġmarc": 432,
      "Ġpor": 433,
      "il": 434,
      "Ġminutos": 435,
      "isitante": 436,
      "ty": 437,
      "tball": 438,
      "ero": 439,
      "ootball": 440,
      "ur": 441,
      "mo": 442,
      "Ġencuen": 443,
      "se": 444,
      "tencia": 445,
      "resul": 446,
      "Ġpara": 447,
      "ĠV": 448,
      "Ġesp": 449,
      "resultado": 450,
      "Ġencuentro": 451,
      "tido": 452,
      "istencia": 453,
      "tor": 454,
      "tbol": 455,
      "ig": 456,
      "por": 457,
      "El": 458,
      "liga": 459,
      "Ġ3": 460,
      "mb": 461,
      "Ġlocal": 462,
      "dad": 463,
      "Ġcom": 464,
      "fi": 465,
      "ĠFootball": 466,
      "ĠH": 467,
      "vo": 468,
      "tes": 469,
      "Ġdej": 470,
      "tar": 471,
      "ĠLa": 472,
      "Ġpartido": 473,
      "Ġminuto": 474,
      "ran": 475,
      "ĠT": 476,
      "fe": 477,
      "Ġequi": 478,
      "ĠJ": 479,
      "Ġ4": 480,
      "io": 481,
      "ma": 482,
      "lo": 483,
      "gol": 484,
      "Ãºtbol": 485,
      "tÃ³": 486,
      "za": 487,
      "Ġequip": 488,
      "ac": 489,
      "ador": 490,
      "Ġfue": 491,
      "ĠLe": 492,
      "fecha": 493,
      "Ġlas": 494,
      "goles": 495,
      "><": 496,
      "></": 497,
      "local": 498,
      "sty": 499,
      "visitante": 500,
      "estadio": 501,
      "style": 502,
      "mer": 503,
      "ĠU": 504,
      "ico": 505,
      "Ġesta": 506,
      "fen": 507,
      "Ġseg": 508,
      "ĠEl": 509,
      "ab": 510,
      "Ġvi": 511,
      "va": 512,
      "ĠN": 513,
      "ag": 514,
      "ada": 515,
      "asistencia": 516,
      "Ġ5": 517,
      "Ġmarcador": 518,
      "Ġo": 519,
      "ver": 520,
      "Ġan": 521,
      "ll": 522,
      "Â¡": 523,
      "zo": 524,
      "ĠK": 525,
      "Ġpri": 526,
      "Ġcu": 527,
      "mpo": 528,
      "enta": 529,
      "tie": 530,
      "Ġlle": 531,
      "tic": 532,
      "ion": 533,
      "Ġ6": 534,
      "Ġlo": 535,
      "Ġprimer": 536,
      "toria": 537,
      "ante": 538,
      "ĠSta": 539,
      "ie": 540,
      "Ġsegun": 541,
      "Ġ7": 542,
      "En": 543,
      ".</": 544,
      "Ġafi": 545,
      "Ã¡s": 546,
      "Ġcomo": 547,
      "ien": 548,
      "cio": 549,
      "ano": 550,
      "ĠUn": 551,
      "ĠÂ¡": 552,
      "Ġap": 553,
      "min": 554,
      "Ġi": 555,
      "ja": 556,
      "ĠW": 557,
      "so": 558,
      "Ġequipo": 559,
      "Ġ8": 560,
      "sa": 561,
      "Ġ201": 562,
      "pi": 563,
      "ciones": 564,
      "tin": 565,
      "aron": 566,
      "me": 567,
      "pu": 568,
      "Ġespec": 569,
      "Ġinten": 570,
      "ĠfÃºtbol": 571,
      "Ġdefen": 572,
      "ĠO": 573,
      "ren": 574,
      "tre": 575,
      "OO": 576,
      "Ġemo": 577,
      "rÃ³": 578,
      "Ġab": 579,
      "Ġres": 580,
      "trÃ³": 581,
      "Ġtie": 582,
      "ĠmÃ¡s": 583,
      "Ġtiempo": 584,
      "Ġ202": 585,
      "ĠMa": 586,
      "ve": 587,
      "ĠSpor": 588,
      "th": 589,
      "inal": 590,
      "Ġtar": 591,
      "den": 592,
      "pa": 593,
      "onde": 594,
      "das": 595,
      "ir": 596,
      "tÃ¡": 597,
      "Ġvic": 598,
      "ay": 599,
      "ĠÃ¡rbitro": 600,
      "Ġvictoria": 601,
      "Ã±": 602,
      "Ġcuando": 603,
      "Ġpero": 604,
      "Ġdonde": 605,
      "Ġsin": 606,
      "Ġabri": 607,
      "argo": 608,
      "tuvo": 609,
      "Ġas": 610,
      "Ġdo": 611,
      "Ġfinal": 612,
      "rio": 613,
      "lar": 614,
      "ĠdejÃ³": 615,
      "Ġvib": 616,
      "Ã©s": 617,
      "Ġman": 618,
      "Ġr": 619,
      "mi": 620,
      "ca": 621,
      "Ġdi": 622,
      "uego": 623,
      "Ġdesa": 624,
      "ĠCon": 625,
      "uer": 626,
      "Ġemb": 627,
      "Ġtarde": 628,
      "ĠI": 629,
      "Ġme": 630,
      "tra": 631,
      "Ġgra": 632,
      "00": 633,
      "ados": 634,
      "zÃ³": 635,
      "Ġemp": 636,
      "et": 637,
      "omp": 638,
      "Ġpres": 639,
      "Ġca": 640,
      "ĠAl": 641,
      "Ġjuego": 642,
      "ton": 643,
      "Ġsus": 644,
      "ĠRe": 645,
      "Ġdesc": 646,
      "Ġ9": 647,
      "Ġembargo": 648,
      "iÃ³n": 649,
      "ague": 650,
      "Ġmos": 651,
      "olo": 652,
      "entaja": 653,
      "ĠLeague": 654,
      "Ġsegundo": 655,
      "ulo": 656,
      "ĠEn": 657,
      "tiva": 658,
      "ĠAn": 659,
      "des": 660,
      "tÃ¡c": 661,
      "gÃ³": 662,
      "Ġentre": 663,
      "um": 664,
      "Ġventaja": 665,
      "tun": 666,
      "ita": 667,
      "Ã¼": 668,
      "ĠStadi": 669,
      "Ġtan": 670,
      "ne": 671,
      "Ġlog": 672,
      "Ġsell": 673,
      "che": 674,
      "for": 675,
      "pe": 676,
      "der": 677,
      "Ġempa": 678,
      "im": 679,
      "Ġlocales": 680,
      "ĠRo": 681,
      "ĠCal": 682,
      "ĠFC": 683,
      "Ã¡n": 684,
      "Ġ0": 685,
      "Ġimp": 686,
      "Ġam": 687,
      "Ġcor": 688,
      "Ġhi": 689,
      "ing": 690,
      "ĠMar": 691,
      "eron": 692,
      "Ġaficion": 693,
      "Ġqui": 694,
      "Ġto": 695,
      "Ġaficionados": 696,
      "ali": 697,
      "per": 698,
      "Ġac": 699,
      "Ġclar": 700,
      "Ġesper": 701,
      "oci": 702,
      "Ġlu": 703,
      "ha": 704,
      "Ġdefensa": 705,
      "Ġdis": 706,
      "anza": 707,
      "Ġcer": 708,
      "tico": 709,
      "pla": 710,
      "Ġcomp": 711,
      "Ġpas": 712,
      "na": 713,
      "tando": 714,
      "oli": 715,
      "Ġquien": 716,
      "ĠCalcio": 717,
      "icano": 718,
      "tal": 719,
      ".)": 720,
      "Ġju": 721,
      "Ġri": 722,
      "urg": 723,
      "tense": 724,
      "ciÃ³": 725,
      "Ġhizo": 726,
      "riopla": 727,
      "rioplatense": 728,
      "tiÃ³": 729,
      "uelo": 730,
      "Ġdejando": 731,
      "Ġtran": 732,
      "mas": 733,
      "Ġini": 734,
      "ven": 735,
      "Ġar": 736,
      "Ġencon": 737,
      "ĠabriÃ³": 738,
      "ĠSin": 739,
      "Ġpre": 740,
      "ĠFÃºtbol": 741,
      "tras": 742,
      "Ġtri": 743,
      "Ġespectado": 744,
      "Ġ90": 745,
      "Ġvibran": 746,
      "Ġtanto": 747,
      "ĠlogrÃ³": 748,
      "Ġcomen": 749,
      "Ġllev": 750,
      "rom": 751,
      "Ġestadio": 752,
      "jo": 753,
      "ento": 754,
      "ĠllegÃ³": 755,
      "Ġduelo": 756,
      "enas": 757,
      "ĠmostrÃ³": 758,
      "ble": 759,
      "ĠSer": 760,
      "viÃ³": 761,
      "era": 762,
      "val": 763,
      "Ġespectadores": 764,
      "Ġvibrante": 765,
      "ĠDe": 766,
      "co": 767,
      "Ġempate": 768,
      "aciÃ³n": 769,
      "dri": 770,
      "ĠespectÃ¡c": 771,
      "ĠespectÃ¡culo": 772,
      "Ġvisitante": 773,
      "Ġpun": 774,
      "nico": 775,
      "ern": 776,
      "rÃŃa": 777,
      "cen": 778,
      "gi": 779,
      "Ġper": 780,
      "ario": 781,
      "tero": 782,
      "iga": 783,
      "igue": 784,
      "Ġequipos": 785,
      "Ġbus": 786,
      "ĠCi": 787,
      "Ġsi": 788,
      "igu": 789,
      "ino": 790,
      "tien": 791,
      "ber": 792,
      "Ġcol": 793,
      "ĠFu": 794,
      "ĠaficiÃ³n": 795,
      "ite": 796,
      "Ġte": 797,
      "uso": 798,
      "Ġhin": 799,
      "uÃ©": 800,
      "Ġvisitan": 801,
      "dÃ³": 802,
      "Ġvisitantes": 803,
      "az": 804,
      "Ġasistencia": 805,
      "Ġmita": 806,
      "Ġgradas": 807,
      "Ġmitad": 808,
      "Ġex": 809,
      "ĠEs": 810,
      "mos": 811,
      "he": 812,
      "mbos": 813,
      "Ġnoche": 814,
      "ientras": 815,
      "ÃŁ": 816,
      "burg": 817,
      "ĠAs": 818,
      "ou": 819,
      "Ġha": 820,
      "Ġmientras": 821,
      "ĠSa": 822,
      "mpi": 823,
      "ball": 824,
      "fo": 825,
      "Ġrec": 826,
      "Ġclaro": 827,
      "ap": 828,
      "ĠsellÃ³": 829,
      "ited": 830,
      "ĠUnited": 831,
      "Ġdomin": 832,
      "Ġmom": 833,
      "av": 834,
      "ÃŁball": 835,
      "esde": 836,
      "Ġsegunda": 837,
      "las": 838,
      "ly": 839,
      "tali": 840,
      "Ġemociones": 841,
      "dam": 842,
      "diÃ³": 843,
      "ĠStadium": 844,
      "Ġeu": 845,
      "Ġambos": 846,
      "lan": 847,
      "eno": 848,
      "orn": 849,
      "gar": 850,
      "rar": 851,
      "puesta": 852,
      "ru": 853,
      "Ġante": 854,
      "ho": 855,
      "Ġ19": 856,
      "ĠCity": 857,
      "Ġsolo": 858,
      "vir": 859,
      "Ġtuvo": 860,
      "ĠZ": 861,
      "ĠcomenzÃ³": 862,
      "ĠAr": 863,
      "Ġtres": 864,
      "ce": 865,
      "socia": 866,
      "Ġtriun": 867,
      "Ġpreci": 868,
      "igual": 869,
      "Ġreci": 870,
      "ester": 871,
      "Ġrival": 872,
      "tivo": 873,
      "ĠSport": 874,
      "Ġpo": 875,
      "Ġcontun": 876,
      "Ġcontunden": 877,
      "Ġigual": 878,
      "ona": 879,
      "Ġprom": 880,
      "ĠStade": 881,
      "po": 882,
      "Ġresultado": 883,
      "Ġter": 884,
      "ĠrÃ¡": 885,
      "ĠCh": 886,
      "idad": 887,
      "Ġvol": 888,
      "cnico": 889,
      "ĠSerie": 890,
      "xicano": 891,
      "ini": 892,
      "Ġ18": 893,
      "Ġapro": 894,
      "lla": 895,
      "ad": 896,
      "ura": 897,
      "Ġpos": 898,
      "dar": 899,
      "Ġtriunfo": 900,
      "esp": 901,
      "tecnico": 902,
      "mexicano": 903,
      "Ġpuntos": 904,
      "ĠLu": 905,
      "ĠrÃ¡pi": 906,
      "Ġpro": 907,
      "Ã©n": 908,
      "siÃ³n": 909,
      "ĠFuÃŁball": 910,
      "Ġcada": 911,
      "Ġconvir": 912,
      "Ġta": 913,
      "Ġalmas": 914,
      "Ġgoles": 915,
      "ĠY": 916,
      "ham": 917,
      "lympi": 918,
      "Ġaprove": 919,
      "iz": 920,
      "ĠPre": 921,
      "biÃ³": 922,
      "Ġrespuesta": 923,
      "Ġjuga": 924,
      "Ġbal": 925,
      "Ġaprovech": 926,
      "asion": 927,
      "encia": 928,
      "anz": 929,
      "bre": 930,
      "ĠencontrÃ³": 931,
      "Ġeste": 932,
      "puÃ©s": 933,
      "ge": 934,
      "Ġparec": 935,
      "ĠLigue": 936,
      "ĠdespuÃ©s": 937,
      "!</": 938,
      "Ġver": 939,
      "lympique": 940,
      "Ġcam": 941,
      "mier": 942,
      "ĠdesatÃ³": 943,
      "ĠPremier": 944,
      "Ġser": 945,
      "QuÃ©": 946,
      "siva": 947,
      "ĠReal": 948,
      "Ġtor": 949,
      "ĠLiga": 950,
      "qu": 951,
      "rena": 952,
      "Ġfuer": 953,
      "Ġdescon": 954,
      "ĠPar": 955,
      "ris": 956,
      "lÃ©": 957,
      "Ġref": 958,
      "Ġtransi": 959,
      "Ġbusc": 960,
      "Ġso": 961,
      "Ġtodo": 962,
      "Ġinicio": 963,
      "mÃ³": 964,
      "ĠAt": 965,
      "Ġjorn": 966,
      "Ġjornada": 967,
      "Ġcas": 968,
      "son": 969,
      "Ġcontr": 970,
      "drid": 971,
      "uro": 972,
      "Ġtras": 973,
      "ĠconvirtiÃ³": 974,
      "ilba": 975,
      "par": 976,
      "Ġeufor": 977,
      "Ġeuforia": 978,
      "As": 979,
      "est": 980,
      "unque": 981,
      "Ġano": 982,
      "ĠMadrid": 983,
      "eti": 984,
      "Ġsen": 985,
      "Ġcons": 986,
      "GOO": 987,
      "Ġmantuvo": 988,
      "Ġjugada": 989,
      "Ġcontundente": 990,
      "Ġlucha": 991,
      "Ġreac": 992,
      "ina": 993,
      "ille": 994,
      "Ġale": 995,
      "Ġparte": 996,
      "ĠTo": 997,
      "ĠSportiva": 998,
      "ĠÃº": 999,
      "Ġcar": 1000,
      "Ġpes": 1001,
      "ĠMan": 1002,
      "ĠBun": 1003,
      "tino": 1004,
      "desliga": 1005,
      "ĠBundesliga": 1006,
      "mpli": 1007,
      "Ġambi": 1008,
      "ĠĊ": 1009,
      "Ġdef": 1010,
      "ior": 1011,
      "ĠcÃ³": 1012,
      "Ġcontrol": 1013,
      "ere": 1014,
      "Ġemocion": 1015,
      "Ġofen": 1016,
      "chas": 1017,
      "ĠvolviÃ³": 1018,
      "FC": 1019,
      "âĢ": 1020,
      "Ġaunque": 1021,
      "asta": 1022,
      "Ġle": 1023,
      "endo": 1024,
      "cial": 1025,
      "ĠrecibiÃ³": 1026,
      "iel": 1027,
      "gen": 1028,
      "lor": 1029,
      "Ã¶": 1030,
      "Ġrefle": 1031,
      "Ġdesde": 1032,
      "mor": 1033,
      "ann": 1034,
      "Ġef": 1035,
      "Ġintensi": 1036,
      "Ġgran": 1037,
      "Ġtemp": 1038,
      "Ġemocionante": 1039,
      "Club": 1040,
      "hi": 1041,
      "Ġhab": 1042,
      "Ġhis": 1043,
      "ĠllevÃ³": 1044,
      "etÃŃa": 1045,
      "11": 1046,
      "ĠparecÃŃa": 1047,
      "ele": 1048,
      "Ġten": 1049,
      "uido": 1050,
      "ĠPero": 1051,
      "ĠprometÃŃa": 1052,
      "ione": 1053,
      "aba": 1054,
      "Ġdos": 1055,
      "Ġhinchas": 1056,
      "02": 1057,
      "09": 1058,
      "ĠHo": 1059,
      "Ġesperanza": 1060,
      "Ġpesar": 1061,
      "sen": 1062,
      "Ġba": 1063,
      "ĠMil": 1064,
      "Ġampli": 1065,
      "ban": 1066,
      "ĠBay": 1067,
      "Ġpon": 1068,
      "visi": 1069,
      "orp": 1070,
      "Ġdio": 1071,
      "testi": 1072,
      "cas": 1073,
      "lÃ©tico": 1074,
      "dez": 1075,
      "Ġsorp": 1076,
      "mente": 1077,
      "ĠSan": 1078,
      "eg": 1079,
      "cias": 1080,
      "chester": 1081,
      "12": 1082,
      "ard": 1083,
      "Ġcoraz": 1084,
      "Ġtesti": 1085,
      "cer": 1086,
      "rea": 1087,
      "cht": 1088,
      "ĠAtlÃ©tico": 1089,
      "10": 1090,
      "ĠVal": 1091,
      "Ġdesatando": 1092,
      "Ġevi": 1093,
      "ĠStadion": 1094,
      "ÃŃn": 1095,
      "pon": 1096,
      "ĠPa": 1097,
      "tante": 1098,
      "ĠFran": 1099,
      "redi": 1100,
      "ĠGi": 1101,
      "ĠBor": 1102,
      "tuaciÃ³n": 1103,
      "visie": 1104,
      "redivisie": 1105,
      "Ġgri": 1106,
      "ocido": 1107,
      "Desde": 1108,
      "ĠEredivisie": 1109,
      "sivo": 1110,
      "ew": 1111,
      "tir": 1112,
      "Ġpresen": 1113,
      "Ġaleg": 1114,
      "Ġintensidad": 1115,
      "La": 1116,
      "minÃ³": 1117,
      "ĠemociÃ³n": 1118,
      "GOOOO": 1119,
      "ez": 1120,
      "ĠbalÃ³n": 1121,
      "ista": 1122,
      "Ġdestino": 1123,
      "Ġmemor": 1124,
      "ĠRom": 1125,
      "ĠalegrÃŃa": 1126,
      "ich": 1127,
      "Ġambiente": 1128,
      "ed": 1129,
      "ting": 1130,
      "Ġbi": 1131,
      "Ġfi": 1132,
      "Ġhac": 1133,
      "Ġdominio": 1134,
      "Ġred": 1135,
      "Ġgolpe": 1136,
      "Ġestall": 1137,
      "fon": 1138,
      "Ġdesconocido": 1139,
      "les": 1140,
      "Ġdefini": 1141,
      "Ġfir": 1142,
      "able": 1143,
      "Ġmedi": 1144,
      "ĠsÃ³": 1145,
      "ij": 1146,
      "penas": 1147,
      "Ġya": 1148,
      "Ġenf": 1149,
      "eren": 1150,
      "ord": 1151,
      "Ġ45": 1152,
      "omb": 1153,
      "Ġdispu": 1154,
      "Ġfiesta": 1155,
      "Ġapenas": 1156,
      "01": 1157,
      "Ġmomento": 1158,
      "Ġrema": 1159,
      "04": 1160,
      "Ġconj": 1161,
      "000": 1162,
      "Ġcasa": 1163,
      "entos": 1164,
      "ĠDepor": 1165,
      "Ġeviden": 1166,
      "Ġconc": 1167,
      "uss": 1168,
      "ke": 1169,
      "Ġtestigo": 1170,
      "Re": 1171,
      "ire": 1172,
      "ĠVil": 1173,
      "Ġconjun": 1174,
      "diente": 1175,
      "ĠOlympique": 1176,
      "Ġposi": 1177,
      "Ġexp": 1178,
      "03": 1179,
      "Sin": 1180,
      "ĠJu": 1181,
      "ĠEuro": 1182,
      "ras": 1183,
      "anso": 1184,
      "Ġescen": 1185,
      "Ġhistoria": 1186,
      "Ġoc": 1187,
      "Ġimpuso": 1188,
      "Ġdescanso": 1189,
      "Ġbien": 1190,
      "GOOOOL": 1191,
      "Ġll": 1192,
      "Ġrea": 1193,
      "Ġremate": 1194,
      "ĠArena": 1195,
      "avor": 1196,
      "Ġsab": 1197,
      "ores": 1198,
      "ak": 1199,
      "Ġsilba": 1200,
      "ĠCo": 1201,
      "hamp": 1202,
      "ĠSain": 1203,
      "cidad": 1204,
      "arcel": 1205,
      "ĠpasiÃ³n": 1206,
      "terdam": 1207,
      "fir": 1208,
      "Ġdeci": 1209,
      "cho": 1210,
      "ĠVi": 1211,
      "ĠsÃ³li": 1212,
      "ev": 1213,
      "los": 1214,
      "Ġdelan": 1215,
      "Ġdemos": 1216,
      "Ġloc": 1217,
      "ĠampliÃ³": 1218,
      "ĠJo": 1219,
      "ĠSaint": 1220,
      "mar": 1221,
      "ĠBo": 1222,
      "ier": 1223,
      "Ġprimera": 1224,
      "ones": 1225,
      "Ġnue": 1226,
      "Ġcele": 1227,
      "Ġceleb": 1228,
      "Ġfavor": 1229,
      "men": 1230,
      "gan": 1231,
      "ĠCar": 1232,
      "ĠMon": 1233,
      "ussia": 1234,
      "ug": 1235,
      "Ã±o": 1236,
      "ĠÃ": 1237,
      "eta": 1238,
      "ĠCu": 1239,
      "ĠEuropa": 1240,
      "Ġcamino": 1241,
      "Ġpu": 1242,
      "chen": 1243,
      "lti": 1244,
      "Ġcertero": 1245,
      "Ġlocura": 1246,
      "ers": 1247,
      "port": 1248,
      "Ġav": 1249,
      "gado": 1250,
      "rigi": 1251,
      "zione": 1252,
      "mbre": 1253,
      "sociazione": 1254,
      "ĠRoma": 1255,
      "Ġescenario": 1256,
      "ĠBen": 1257,
      "inc": 1258,
      "ĠÃºlti": 1259,
      "alidad": 1260,
      "âĢĻ": 1261,
      "and": 1262,
      "Ġabrir": 1263,
      "ry": 1264,
      "talia": 1265,
      "com": 1266,
      "ĠtÃ¡c": 1267,
      "utbol": 1268,
      "Real": 1269,
      "Ġcuen": 1270,
      "ari": 1271,
      "nais": 1272,
      "Ġgrito": 1273,
      "ÃŃan": 1274,
      "thle": 1275,
      "ĠIn": 1276,
      "ĠpresiÃ³n": 1277,
      "iendo": 1278,
      "Ġmostr": 1279,
      "ĠasÃŃ": 1280,
      "Ġcapa": 1281,
      "nchen": 1282,
      "Ġpi": 1283,
      "Ġmu": 1284,
      "Ġbuen": 1285,
      "Ġob": 1286,
      "uel": 1287,
      "arcelona": 1288,
      "ins": 1289,
      "ĠBarcelona": 1290,
      "und": 1291,
      "ĠCF": 1292,
      "bun": 1293,
      "Ġmar": 1294,
      "amente": 1295,
      "Ãł": 1296,
      "Ġaire": 1297,
      "ĠBer": 1298,
      "08": 1299,
      "amp": 1300,
      "Ġreafir": 1301,
      "tt": 1302,
      "Ġreaccion": 1303,
      "sburg": 1304,
      "oso": 1305,
      "Ġconjunto": 1306,
      "Ġcuenta": 1307,
      "ib": 1308,
      "Ġtransiciones": 1309,
      "Ġag": 1310,
      "zio": 1311,
      "ick": 1312,
      "Ã©ro": 1313,
      "ĠDan": 1314,
      "Ġseguido": 1315,
      "Italia": 1316,
      "Ġpuso": 1317,
      "Ġesf": 1318,
      "ĠFe": 1319,
      "Ġmarcar": 1320,
      "ĠPal": 1321,
      "man": 1322,
      "Ġcorres": 1323,
      "Ġcapacidad": 1324,
      "Ġcorrespon": 1325,
      "ki": 1326,
      "ĠhÃ©ro": 1327,
      "Ġencen": 1328,
      "Ġins": 1329,
      "05": 1330,
      "Ġcorrespondiente": 1331,
      "portun": 1332,
      "Ġoportun": 1333,
      "Ġor": 1334,
      "tica": 1335,
      "ĠEste": 1336,
      "ĠSu": 1337,
      "Ġdu": 1338,
      "Ġhacer": 1339,
      "Ġsuper": 1340,
      "ort": 1341,
      "Ġera": 1342,
      "entario": 1343,
      ">Â¡": 1344,
      "ĠintentÃ³": 1345,
      "ĠhÃ©roe": 1346,
      "avi": 1347,
      "Ġcul": 1348,
      "ĠMarc": 1349,
      "amer": 1350,
      "Ġmemoria": 1351,
      "',": 1352,
      "irre": 1353,
      "ĠactuaciÃ³n": 1354,
      "asionado": 1355,
      "ĠAnd": 1356,
      "Ġcla": 1357,
      "Ġreson": 1358,
      "iging": 1359,
      "verente": 1360,
      "tag": 1361,
      "tion": 1362,
      "radio": 1363,
      "Con": 1364,
      "clas": 1365,
      "eciÃ³": 1366,
      "americano": 1367,
      "apasionado": 1368,
      "anol": 1369,
      "troamericano": 1370,
      "centroamericano": 1371,
      "espn": 1372,
      "espanol": 1373,
      "fonico": 1374,
      "irreverente": 1375,
      "radiofonico": 1376,
      "clasico": 1377,
      "liter": 1378,
      "Ġtra": 1379,
      "comentario": 1380,
      "literario": 1381,
      "ener": 1382,
      "Football": 1383,
      "Ġhasta": 1384,
      "arse": 1385,
      "dos": 1386,
      "ĠAle": 1387,
      "ĠBayern": 1388,
      "ĠJos": 1389,
      "Ã¼r": 1390,
      "Ġpermi": 1391,
      "erein": 1392,
      "Ġ11": 1393,
      "Ġrecor": 1394,
      "Ġau": 1395,
      "ĠSe": 1396,
      "dades": 1397,
      "Ġma": 1398,
      "sea": 1399,
      "Ġefec": 1400,
      "ĠSoci": 1401,
      "tÃŃ": 1402,
      "Ġantes": 1403,
      "Ġata": 1404,
      "Ġ2025": 1405,
      "tus": 1406,
      "ĠÃ¡": 1407,
      "arri": 1408,
      "igos": 1409,
      "Ġreaccionar": 1410,
      "Ġese": 1411,
      "Ġhincha": 1412,
      "bor": 1413,
      "ĠCel": 1414,
      "Ġ29": 1415,
      "Ġ10": 1416,
      "rando": 1417,
      "thletic": 1418,
      "Ġcompeti": 1419,
      "Ġsilbato": 1420,
      "ala": 1421,
      "ĠFA": 1422,
      "Ġdefensiva": 1423,
      "ĠCup": 1424,
      "xi": 1425,
      "Ġro": 1426,
      "ĠSporting": 1427,
      "Ġ189": 1428,
      "iver": 1429,
      "ens": 1430,
      "ĠcorazÃ³n": 1431,
      "mon": 1432,
      "rol": 1433,
      "esper": 1434,
      "mico": 1435,
      "ĠMo": 1436,
      "tener": 1437,
      "Ġdelantero": 1438,
      "tina": 1439,
      "van": 1440,
      "Ġ17": 1441,
      "ĠStu": 1442,
      "Ġfr": 1443,
      "etÃł": 1444,
      "Ġsobre": 1445,
      "ĠMi": 1446,
      "ĠEsta": 1447,
      "07": 1448,
      "Ġcab": 1449,
      "Ġesc": 1450,
      "ĠApenas": 1451,
      "Ġven": 1452,
      "Ġ30": 1453,
      "lip": 1454,
      "Ġbri": 1455,
      "ko": 1456,
      "Ġ14": 1457,
      "Ġhinchada": 1458,
      "Ġ13": 1459,
      "ions": 1460,
      "hampions": 1461,
      "ĠChampions": 1462,
      "ĠLazio": 1463,
      "Ġpoc": 1464,
      "Ġ15": 1465,
      "Ġcampo": 1466,
      "Ġamigos": 1467,
      "mund": 1468,
      "Ġles": 1469,
      "Ġ12": 1470,
      "ford": 1471,
      "Ġesfuer": 1472,
      "ĠÃ¡rea": 1473,
      "au": 1474,
      "antes": 1475,
      "Ġgracias": 1476,
      "Ġtrans": 1477,
      "Ġmag": 1478,
      "Ġnos": 1479,
      "Ġcan": 1480,
      "mbi": 1481,
      "Ġestaba": 1482,
      "teg": 1483,
      "Ġ16": 1484,
      "erma": 1485,
      "senal": 1486,
      "eces": 1487,
      "ĠprecisiÃ³n": 1488,
      "ecta": 1489,
      "aco": 1490,
      "ĠPark": 1491,
      "Ġestra": 1492,
      "Ġcolec": 1493,
      "sociation": 1494,
      "eza": 1495,
      "Ġsorpres": 1496,
      "ind": 1497,
      "Ġespa": 1498,
      "erv": 1499,
      "bo": 1500,
      "ĠRa": 1501,
      "Ġconsoli": 1502,
      "Ġofensiva": 1503,
      "ĠMe": 1504,
      "eld": 1505,
      "Ġdisputado": 1506,
      "elo": 1507,
      "Ġapar": 1508,
      "arrile": 1509,
      "orada": 1510,
      "ortmund": 1511,
      "ĠDortmund": 1512,
      "pool": 1513,
      "ĠprÃ³": 1514,
      "Ġsie": 1515,
      "ĠWol": 1516,
      "Ġigualar": 1517,
      "ĠDesde": 1518,
      "Ġmanera": 1519,
      "Ġbarrile": 1520,
      "ace": 1521,
      "mando": 1522,
      "ara": 1523,
      "Ġalta": 1524,
      "Ġtab": 1525,
      "ĠManchester": 1526,
      "ĠHam": 1527,
      "apoli": 1528,
      "Ġseguidores": 1529,
      "ĠRen": 1530,
      "usto": 1531,
      "Ġfirme": 1532,
      "Ġti": 1533,
      "ĠquedÃ³": 1534,
      "ÃŃs": 1535,
      "vidad": 1536,
      "Ġdirigi": 1537,
      "je": 1538,
      "ĠMÃ¼": 1539,
      "Ġbuscando": 1540,
      "mbiÃ©n": 1541,
      "Ġ24": 1542,
      "ĠtambiÃ©n": 1543,
      "vas": 1544,
      "Ġrep": 1545,
      "usen": 1546,
      "Ġencontr": 1547,
      "ĠmÃ¡": 1548,
      "ĠNic": 1549,
      "iento": 1550,
      "ley": 1551,
      "ĠBre": 1552,
      "ĠfÃ¼r": 1553,
      "ĠSch": 1554,
      "ĠAug": 1555,
      "lidad": 1556,
      "Ġesperanz": 1557,
      "Ġ23": 1558,
      "Ġ25": 1559,
      "ĠCopa": 1560,
      "be": 1561,
      "Ã©r": 1562,
      "SC": 1563,
      "rado": 1564,
      "ĠcÃ³s": 1565,
      "ĠcÃ³mo": 1566,
      "Ġbarrilete": 1567,
      "ĠRey": 1568,
      "Ġpresente": 1569,
      "gna": 1570,
      "Ġmomentos": 1571,
      "Ġcont": 1572,
      "yon": 1573,
      "Ġmo": 1574,
      "ĠDo": 1575,
      "ĠComb": 1576,
      "Ġdesp": 1577,
      "neo": 1578,
      "inatie": 1579,
      "ĠCombinatie": 1580,
      "ip": 1581,
      "Ġ27": 1582,
      "Ġcontinu": 1583,
      "llo": 1584,
      "din": 1585,
      "ek": 1586,
      "dero": 1587,
      "villa": 1588,
      "Ġ2017": 1589,
      "Ġ2024": 1590,
      "iverpool": 1591,
      "Ġesperanzas": 1592,
      "tle": 1593,
      "ĠCelta": 1594,
      "dido": 1595,
      "Ġpreciso": 1596,
      "Ġclave": 1597,
      "Ġ04": 1598,
      "ĠAsÃŃ": 1599,
      "ĠRot": 1600,
      "Ġverda": 1601,
      "Ġ21": 1602,
      "tas": 1603,
      "ale": 1604,
      "it": 1605,
      "ĠÃºltimo": 1606,
      "ĠcÃ³smico": 1607,
      "Ġtabla": 1608,
      "jÃ³": 1609,
      "ĠLyon": 1610,
      "ĠTor": 1611,
      "Ġsino": 1612,
      "hilip": 1613,
      "tividad": 1614,
      "Ġ2019": 1615,
      "ayo": 1616,
      "ĠRotterdam": 1617,
      "ĠTh": 1618,
      "fer": 1619,
      "Ġ2014": 1620,
      "ĠEstadio": 1621,
      "ei": 1622,
      "Ġeco": 1623,
      "Ġad": 1624,
      "ĠHer": 1625,
      "Ġ31": 1626,
      "Ġquedar": 1627,
      "tmo": 1628,
      "ana": 1629,
      "ans": 1630,
      "Ġ2021": 1631,
      "Ġelec": 1632,
      "Ġdispar": 1633,
      "ĠInter": 1634,
      "Ġritmo": 1635,
      "Ġpresentes": 1636,
      "Ġelectr": 1637,
      "Ġ2015": 1638,
      "Pero": 1639,
      "club": 1640,
      "Ġcontra": 1641,
      "Ġsellando": 1642,
      "ioren": 1643,
      "aban": 1644,
      "iorentina": 1645,
      "Ġcru": 1646,
      "use": 1647,
      "Ġbusca": 1648,
      "Ġexpecta": 1649,
      "ĠFiorentina": 1650,
      "Ġbrill": 1651,
      "Ġvan": 1652,
      "ria": 1653,
      "Ġ28": 1654,
      "Ġinicial": 1655,
      "ĠBorussia": 1656,
      "verk": 1657,
      "tienda": 1658,
      "Ġestrateg": 1659,
      "tten": 1660,
      "Ãºn": 1661,
      "iele": 1662,
      "verkusen": 1663,
      "Ġestrategia": 1664,
      "Ġpal": 1665,
      "dion": 1666,
      "ĠNapoli": 1667,
      "Ġponer": 1668,
      "ĠsÃ³lida": 1669,
      "uar": 1670,
      "ĠAthletic": 1671,
      "ĠhabÃŃa": 1672,
      "embre": 1673,
      "ĠtransiciÃ³n": 1674,
      "Ġ2013": 1675,
      "ĠevidenciÃ³": 1676,
      "ĠLeverkusen": 1677,
      "Ġ2016": 1678,
      "ermain": 1679,
      "ueÃ±": 1680,
      "bilo": 1681,
      "ernÃ¡n": 1682,
      "ĠestallÃ³": 1683,
      "heim": 1684,
      "ĠencendiÃ³": 1685,
      "Ġcabeza": 1686,
      "Ġtodos": 1687,
      "Ġencar": 1688,
      "Ġ52": 1689,
      "Ġ75": 1690,
      "Ġfutbol": 1691,
      "elsea": 1692,
      "Ġah": 1693,
      "rec": 1694,
      "Ġreg": 1695,
      "ĠPhilip": 1696,
      "ĠFor": 1697,
      "Ġ2023": 1698,
      "Ġ22": 1699,
      "ĠOli": 1700,
      "ventus": 1701,
      "Ġaprovechando": 1702,
      "Ġdisparo": 1703,
      "ernÃ¡ndez": 1704,
      "Ġ60": 1705,
      "Ġtorn": 1706,
      "Ġpoco": 1707,
      "lante": 1708,
      "gart": 1709,
      "Ġcontienda": 1710,
      "Ġtercer": 1711,
      "Ġhacia": 1712,
      "tac": 1713,
      "ĠNo": 1714,
      "Ġdeja": 1715,
      "loj": 1716,
      "ĠVilla": 1717,
      "Ġer": 1718,
      "Ġ26": 1719,
      "ĠBas": 1720,
      "Ġvibrar": 1721,
      "ĠMÃ¼nchen": 1722,
      "Ġreloj": 1723,
      "Ġcapi": 1724,
      "ĠDeportivo": 1725,
      "ata": 1726,
      "real": 1727,
      "ĠGran": 1728,
      "Ġilu": 1729,
      "ĠVerein": 1730,
      "ĠRober": 1731,
      "castle": 1732,
      "ewcastle": 1733,
      "fre": 1734,
      "idades": 1735,
      "Ġcolectiva": 1736,
      "no": 1737,
      "Ġ34": 1738,
      "Ġataque": 1739,
      "termin": 1740,
      "Ãºs": 1741,
      "urn": 1742,
      "ud": 1743,
      "Ġder": 1744,
      "osa": 1745,
      "iste": 1746,
      "Ġsuperior": 1747,
      "ĠAugsburg": 1748,
      "agli": 1749,
      "ĠaprovechÃ³": 1750,
      "ĠFrank": 1751,
      "ka": 1752,
      "vamente": 1753,
      "piro": 1754,
      "Ġprotag": 1755,
      "Ġoportunidades": 1756,
      "Germain": 1757,
      "ĠBar": 1758,
      "Ġq": 1759,
      "ĠculminÃ³": 1760,
      "ĠresonÃ³": 1761,
      "raron": 1762,
      "Ġfor": 1763,
      "ttgart": 1764,
      "Ġcalidad": 1765,
      "Ġrinc": 1766,
      "ĠStuttgart": 1767,
      "Ġprotagon": 1768,
      "renta": 1769,
      "gh": 1770,
      "Ġelectriz": 1771,
      "ondo": 1772,
      "ierre": 1773,
      "mpre": 1774,
      "Ġgener": 1775,
      "ĠmarcÃ³": 1776,
      "Ġsabor": 1777,
      "Ġvali": 1778,
      "Ġelectrizante": 1779,
      "Ġsiempre": 1780,
      "lib": 1781,
      "Ġ2022": 1782,
      "ĠChris": 1783,
      "Ġdesar": 1784,
      "Ġop": 1785,
      "Ġ2018": 1786,
      "Ġsenten": 1787,
      "Ġenfrenta": 1788,
      "jax": 1789,
      "ĠtornÃ³": 1790,
      "Sta": 1791,
      "ĠAjax": 1792,
      "Ġglor": 1793,
      "Ġtemporada": 1794,
      "Ġllen": 1795,
      "miento": 1796,
      "Ġdetermin": 1797,
      "ĠrincÃ³n": 1798,
      "Äĩ": 1799,
      "Ġsali": 1800,
      "anta": 1801,
      "ÃŃo": 1802,
      "larreal": 1803,
      "pur": 1804,
      "damente": 1805,
      "Ġmedioc": 1806,
      "ĠrÃ¡pida": 1807,
      "Associazione": 1808,
      "ĠMilan": 1809,
      "Par": 1810,
      "jos": 1811,
      "Ġade": 1812,
      "orde": 1813,
      "Ġfondo": 1814,
      "lav": 1815,
      "Ġ59": 1816,
      "Ġ2020": 1817,
      "Sport": 1818,
      "Ġliga": 1819,
      "Ãºbilo": 1820,
      "ĠjÃºbilo": 1821,
      "Ġ53": 1822,
      "ciendo": 1823,
      "tura": 1824,
      "urri": 1825,
      "ĠahÃŃ": 1826,
      "ĠSte": 1827,
      "ĠapareciÃ³": 1828,
      "ĠcontinuÃ³": 1829,
      "if": 1830,
      "Ġcho": 1831,
      "esiÃ³n": 1832,
      "ĠBeti": 1833,
      "Ġni": 1834,
      "ĠigualÃ³": 1835,
      "ttenham": 1836,
      "Ġchoque": 1837,
      "ĠBetis": 1838,
      "chÃ³": 1839,
      "erona": 1840,
      "ĠWil": 1841,
      "Ġverdadero": 1842,
      "ass": 1843,
      "Ġfueron": 1844,
      "ein": 1845,
      "Ġ35": 1846,
      "talanta": 1847,
      "ĠmÃ¡g": 1848,
      "tia": 1849,
      "ĠJosÃ©": 1850,
      "Ġmis": 1851,
      "ĠDavi": 1852,
      "Ġ40": 1853,
      "ĠÃģ": 1854,
      "trel": 1855,
      "Ġenfren": 1856,
      "Ġavanza": 1857,
      "Ġsupo": 1858,
      "urt": 1859,
      "field": 1860,
      "Ġ71": 1861,
      "Ġgole": 1862,
      "ĠreacciÃ³n": 1863,
      "Ġsorpren": 1864,
      "yeno": 1865,
      "ola": 1866,
      "xima": 1867,
      "yenoord": 1868,
      "tada": 1869,
      "rero": 1870,
      "ĠBra": 1871,
      "Ġjusto": 1872,
      "Ġciel": 1873,
      "tian": 1874,
      "Ġfe": 1875,
      "Ġvio": 1876,
      "elli": 1877,
      "ĠHar": 1878,
      "ĠposiciÃ³n": 1879,
      "OL": 1880,
      "ski": 1881,
      "zos": 1882,
      "Ã±a": 1883,
      "rid": 1884,
      "ĠFre": 1885,
      "Ġ39": 1886,
      "Ġtorneo": 1887,
      "Ġofensivo": 1888,
      "ĠquedarÃ¡": 1889,
      "edad": 1890,
      "sas": 1891,
      "Ġ32": 1892,
      "ĠHa": 1893,
      "Ġ51": 1894,
      "pira": 1895,
      "Ġmej": 1896,
      "Ġtribun": 1897,
      "ĠtensiÃ³n": 1898,
      "oy": 1899,
      "ane": 1900,
      "Ġconcre": 1901,
      "13": 1902,
      "Ġra": 1903,
      "Ġson": 1904,
      "ĠWa": 1905,
      "Ġdemostr": 1906,
      "Ġdeber": 1907,
      "ĠZa": 1908,
      "ĠanotÃ³": 1909,
      "Ġponiendo": 1910,
      "Ġcompl": 1911,
      "intra": 1912,
      "acing": 1913,
      "Ġ61": 1914,
      "ĠUna": 1915,
      "intracht": 1916,
      "iÃ©": 1917,
      "uc": 1918,
      "ĠÃ©": 1919,
      "ĠAm": 1920,
      "Ġ49": 1921,
      "ĠEsp": 1922,
      "ĠHof": 1923,
      "kma": 1924,
      "ĠBal": 1925,
      "Ġ58": 1926,
      "Ġsuperioridad": 1927,
      "Ġvez": 1928,
      "ĠRennais": 1929,
      "Ġdesarrol": 1930,
      "Ġfal": 1931,
      "Ġequilib": 1932,
      "ĠrÃ¡pidamente": 1933,
      "Man": 1934,
      "ĠaÃºn": 1935,
      "furt": 1936,
      "Ġcerrar": 1937,
      "Ġgloria": 1938,
      "Manchester": 1939,
      "Ġlleno": 1940,
      "kmaar": 1941,
      "ĠLor": 1942,
      "Ġ50": 1943,
      "Ġotro": 1944,
      "egue": 1945,
      "Ġmagia": 1946,
      "Ġdespli": 1947,
      "iza": 1948,
      "Ġcita": 1949,
      "ese": 1950,
      "ĠVo": 1951,
      "Ġren": 1952,
      "luy": 1953,
      "Ġferv": 1954,
      "Ġsuspiro": 1955,
      "Ġerr": 1956,
      "Ġfervor": 1957,
      "Ġ55": 1958,
      "Ġ63": 1959,
      "Ġcoloc": 1960,
      "quero": 1961,
      "ias": 1962,
      "Ġ62": 1963,
      "ompiÃ©": 1964,
      "ĠposesiÃ³n": 1965,
      "Ġ1899": 1966,
      "any": 1967,
      "Ġarquero": 1968,
      "tiendo": 1969,
      "tbal": 1970,
      "Olympique": 1971,
      "mpe": 1972,
      "ĠDen": 1973,
      "Ġquienes": 1974,
      "Ġanotando": 1975,
      "ĠdefiniciÃ³n": 1976,
      "ĠviviÃ³": 1977,
      "dor": 1978,
      "Ġsig": 1979,
      "rez": 1980,
      "AsÃŃ": 1981,
      "ĠSevilla": 1982,
      "ira": 1983,
      "Ġ36": 1984,
      "Ġ57": 1985,
      "ĠdeberÃ¡": 1986,
      "Ġdespliegue": 1987,
      "ros": 1988,
      "wn": 1989,
      "zar": 1990,
      "Ġ\"": 1991,
      "Ġestallar": 1992,
      "Ġ42": 1993,
      "Ġestable": 1994,
      "ĠrÃ¡pidas": 1995,
      "Ġpudo": 1996,
      "ĠFrankfurt": 1997,
      "Ġuno": 1998,
      "ĠLille": 1999,
      "Ġnuevamente": 2000,
      "etafe": 2001,
      "eniging": 2002,
      "Ġsoli": 2003,
      "Ġpue": 2004,
      "Ġ56": 2005,
      "vereniging": 2006,
      "ĠArsenal": 2007,
      "ĠdeterminaciÃ³n": 2008,
      "Ġ41": 2009,
      "fenheim": 2010,
      "ĠAnton": 2011,
      "Ġtransc": 2012,
      "Ã§": 2013,
      "ĠDu": 2014,
      "Ġ38": 2015,
      "ĠcerrÃ³": 2016,
      "ĠPalace": 2017,
      "ĠPhilips": 2018,
      "ĠHoffenheim": 2019,
      "Ġ81": 2020,
      "ĠSamp": 2021,
      "06": 2022,
      "ĠFue": 2023,
      "Ġ83": 2024,
      "Ġlugar": 2025,
      "19": 2026,
      "icha": 2027,
      "Ġ48": 2028,
      "Ġ78": 2029,
      "nez": 2030,
      "ĠterminÃ³": 2031,
      "ĠGon": 2032,
      "Ġduda": 2033,
      "ĠsoÃ±": 2034,
      "Ġcapitali": 2035,
      "ine": 2036,
      "seille": 2037,
      "var": 2038,
      "doria": 2039,
      "ĠNantes": 2040,
      "ĠVigo": 2041,
      "Ġcrucial": 2042,
      "Ġmay": 2043,
      "Ġ44": 2044,
      "Ġand": 2045,
      "Ġcual": 2046,
      "ĠintenciÃ³n": 2047,
      "ĠWolf": 2048,
      "gers": 2049,
      "one": 2050,
      "Ġsiste": 2051,
      "ani": 2052,
      "ĠfrÃŃa": 2053,
      "Ġvital": 2054,
      "Ġ72": 2055,
      "ĠSampdoria": 2056,
      "taron": 2057,
      "Ġ43": 2058,
      "ĠSt": 2059,
      "Ġ47": 2060,
      "land": 2061,
      "hoven": 2062,
      "Ġcorazones": 2063,
      "Ġfrente": 2064,
      "indhoven": 2065,
      "du": 2066,
      "ert": 2067,
      "dose": 2068,
      "cios": 2069,
      "ĠBilba": 2070,
      "Ġdestac": 2071,
      "ologna": 2072,
      "ĠempatÃ³": 2073,
      "talla": 2074,
      "ĠmÃ¡gica": 2075,
      "anyol": 2076,
      "ĠBilbao": 2077,
      "zig": 2078,
      "stal": 2079,
      "Ġdefensivo": 2080,
      "Ġmantener": 2081,
      "Ġmedida": 2082,
      "Soci": 2083,
      "gun": 2084,
      "Ġ54": 2085,
      "ĠMarseille": 2086,
      "ĠLyonnais": 2087,
      "Ġsolidez": 2088,
      "etbal": 2089,
      "Ġsigue": 2090,
      "inz": 2091,
      "ĠVerona": 2092,
      "Ġbatalla": 2093,
      "Ġdirigido": 2094,
      "ĠVoetbal": 2095,
      "ĠVoetbalvereniging": 2096,
      "22": 2097,
      "ido": 2098,
      "verein": 2099,
      "Stade": 2100,
      "Ġintentos": 2101,
      "ipzig": 2102,
      "uth": 2103,
      "Ġ65": 2104,
      "ĠSociedad": 2105,
      "ze": 2106,
      "ĠLeipzig": 2107,
      "Ġ73": 2108,
      "ĠseÃ±": 2109,
      "Ġborde": 2110,
      "ung": 2111,
      "ĠHe": 2112,
      "Ġ68": 2113,
      "Ġimpor": 2114,
      "rystal": 2115,
      "SocietÃł": 2116,
      "ces": 2117,
      "isita": 2118,
      "Ġ69": 2119,
      "Ġ2026": 2120,
      "Ġpoder": 2121,
      "ĠenfrentÃ³": 2122,
      "ĠEspanyol": 2123,
      "agliari": 2124,
      "fic": 2125,
      "Ġund": 2126,
      "ĠMun": 2127,
      "Ġ37": 2128,
      "ĠTown": 2129,
      "tulo": 2130,
      "Ġtal": 2131,
      "table": 2132,
      "Ġmarcado": 2133,
      "Ġ82": 2134,
      "ĠencargÃ³": 2135,
      "15": 2136,
      "ss": 2137,
      "fa": 2138,
      "izÃ³": 2139,
      "tros": 2140,
      "ĠClube": 2141,
      "ĠUtre": 2142,
      "Ġ79": 2143,
      "tuna": 2144,
      "ĠAssociazione": 2145,
      "outh": 2146,
      "Ġespacios": 2147,
      "ĠUtrecht": 2148,
      "Ġpartir": 2149,
      "Ġmostraron": 2150,
      "Ġpitido": 2151,
      "ĠpermitiÃ³": 2152,
      "Ġcabezazo": 2153,
      "Ġconsi": 2154,
      "Ġ66": 2155,
      "Ġ74": 2156,
      "Ġ89": 2157,
      "ĠtardÃ³": 2158,
      "iburg": 2159,
      "Ġtempran": 2160,
      "âĢĻ,": 2161,
      "gur": 2162,
      "icester": 2163,
      "Ġinter": 2164,
      "ĠÃºnico": 2165,
      "ĠFreiburg": 2166,
      "ony": 2167,
      "Ġvuel": 2168,
      "Ġ87": 2169,
      "Ġintenso": 2170,
      "ĠOl": 2171,
      "ĠcompeticiÃ³n": 2172,
      "Ġcielo": 2173,
      "ĠLos": 2174,
      "Ġinesper": 2175,
      "Ġdieron": 2176,
      "ĠMarco": 2177,
      "23": 2178,
      "atro": 2179,
      "lad": 2180,
      "Ġpoten": 2181,
      "ĠBremen": 2182,
      "Ġmejor": 2183,
      "abi": 2184,
      "azo": 2185,
      "chi": 2186,
      "ĠValencia": 2187,
      "Ġconsolid": 2188,
      "18": 2189,
      "ull": 2190,
      "ell": 2191,
      "ĠdemostrÃ³": 2192,
      "Ġ64": 2193,
      "ĠWest": 2194,
      "ĠAlex": 2195,
      "Ġ70": 2196,
      "16": 2197,
      "tud": 2198,
      "ĠChelsea": 2199,
      "ai": 2200,
      "Ġali": 2201,
      "Ġsil": 2202,
      "Ġ77": 2203,
      "ĠfutbolÃŃs": 2204,
      "cip": 2205,
      "ĠLiverpool": 2206,
      "ĠMicha": 2207,
      "ĠdÃŃa": 2208,
      "Ġ33": 2209,
      "Ġ85": 2210,
      "Ġaprovechar": 2211,
      "Ġprotagonista": 2212,
      "Arena": 2213,
      "Ġremon": 2214,
      "Ġdur": 2215,
      "ĠLeib": 2216,
      "Ġ88": 2217,
      "Ġpunto": 2218,
      "car": 2219,
      "esÃ¼": 2220,
      "ander": 2221,
      "Ġ2012": 2222,
      "ĠAnte": 2223,
      "ĠCarlos": 2224,
      "bungen": 2225,
      "ĠquÃ©": 2226,
      "ĠLeibesÃ¼": 2227,
      "ĠLeibesÃ¼bungen": 2228,
      "inco": 2229,
      "Ġgan": 2230,
      "Ġgolazo": 2231,
      "Ġprimeros": 2232,
      "Ġrespuestas": 2233,
      "han": 2234,
      "ĠCor": 2235,
      "Ġhue": 2236,
      "Ġ86": 2237,
      "tha": 2238,
      "26": 2239,
      "bl": 2240,
      "uper": 2241,
      "leza": 2242,
      "ĠMor": 2243,
      "tspur": 2244,
      "Ġpase": 2245,
      "ĠreflejÃ³": 2246,
      "ĠHotspur": 2247,
      "ĠGiron": 2248,
      "Ar": 2249,
      "ok": 2250,
      "sterdam": 2251,
      "ticos": 2252,
      "ampton": 2253,
      "Ġreafirma": 2254,
      "Ġdeste": 2255,
      "andro": 2256,
      "Ġsorpresas": 2257,
      "24": 2258,
      "Ġli": 2259,
      "ciando": 2260,
      "Ġrecuper": 2261,
      "Ġrefleja": 2262,
      "ĠsÃ³lido": 2263,
      "Ġinstante": 2264,
      "Ġdistan": 2265,
      "Ġsistema": 2266,
      "Ġcinco": 2267,
      "asiones": 2268,
      "Ġocasiones": 2269,
      "Ġcelebra": 2270,
      "Ġmostrando": 2271,
      "Ġaj": 2272,
      "ĠDi": 2273,
      "Ġregal": 2274,
      "bu": 2275,
      "ĠBe": 2276,
      "ĠJam": 2277,
      "ĠMartin": 2278,
      "ĠAssociation": 2279,
      "ĠLuis": 2280,
      "ĠJuventus": 2281,
      "ĠtÃ¡ctica": 2282,
      "Ġtranscurri": 2283,
      "ampo": 2284,
      "Ġ76": 2285,
      "Ġesfuerzo": 2286,
      "cieron": 2287,
      "bion": 2288,
      "Ġrin": 2289,
      "Ġarran": 2290,
      "Ġefectividad": 2291,
      "mann": 2292,
      "tienne": 2293,
      "ĠGonz": 2294,
      "Bor": 2295,
      "ĠAlbion": 2296,
      "Ġbajo": 2297,
      "ĠTorino": 2298,
      "tp": 2299,
      "vic": 2300,
      "una": 2301,
      "Ġdra": 2302,
      "Ġmaes": 2303,
      "indhovense": 2304,
      "sport": 2305,
      "ītienne": 2306,
      "ĠPS": 2307,
      "outhampton": 2308,
      "Ġremontada": 2309,
      "Ġej": 2310,
      "ĠValle": 2311,
      "Ġhuella": 2312,
      "Borussia": 2313,
      "ff": 2314,
      "ĠVeren": 2315,
      "saciÃ³n": 2316,
      "ĠVereniging": 2317,
      "14": 2318,
      "ĠNewcastle": 2319,
      "ĠVillarreal": 2320,
      "Ġadelan": 2321,
      "25": 2322,
      "wente": 2323,
      "righ": 2324,
      "mouth": 2325,
      "Ġ80": 2326,
      "Ġmucho": 2327,
      "ĠMichael": 2328,
      "vel": 2329,
      "esti": 2330,
      "ĠMall": 2331,
      "Ġneces": 2332,
      "ĠTwente": 2333,
      "Ġ67": 2334,
      "ĠAlli": 2335,
      "dinese": 2336,
      "wich": 2337,
      "ĠSal": 2338,
      "bach": 2339,
      "ienzo": 2340,
      "Ġreplante": 2341,
      "dr": 2342,
      "unca": 2343,
      "Ġvisita": 2344,
      "ĠEr": 2345,
      "Ġpasado": 2346,
      "ĠRobert": 2347,
      "Ġavanzaba": 2348,
      "righton": 2349,
      "Ãītienne": 2350,
      "Ġpe": 2351,
      "aste": 2352,
      "Ġrever": 2353,
      "ĠKon": 2354,
      "Ġitali": 2355,
      "cel": 2356,
      "klub": 2357,
      "tis": 2358,
      "Ġofre": 2359,
      "treek": 2360,
      "evin": 2361,
      "ĠprÃ³xima": 2362,
      "17": 2363,
      "erder": 2364,
      "Ġmil": 2365,
      "Ġnunca": 2366,
      "ĠGetafe": 2367,
      "ĠWerder": 2368,
      "ĠFeyenoord": 2369,
      "Ġtrajo": 2370,
      "Ġconcretar": 2371,
      "lin": 2372,
      "olvi": 2373,
      "ĠFer": 2374,
      "ĠRam": 2375,
      "ĠMartÃŃ": 2376,
      "ellier": 2377,
      "Ġcomplica": 2378,
      "entes": 2379,
      "Ġclara": 2380,
      "Ġautor": 2381,
      "ik": 2382,
      "lÃ³": 2383,
      "end": 2384,
      "stadion": 2385,
      "Ġdar": 2386,
      "ĠDoor": 2387,
      "mpico": 2388,
      "Ġinc": 2389,
      "ingen": 2390,
      "Ġase": 2391,
      "Ġelev": 2392,
      "Ġfest": 2393,
      "rope": 2394,
      "ĠKevin": 2395,
      "Ġarte": 2396,
      "ladbach": 2397,
      "tpellier": 2398,
      "ĠfestÃŃn": 2399,
      "Un": 2400,
      "mero": 2401,
      "Ġmarcando": 2402,
      "umen": 2403,
      "ĠTottenham": 2404,
      "ĠDaniel": 2405,
      "ĠAmsterdam": 2406,
      "Apenas": 2407,
      "iÃ³": 2408,
      "ĠsueÃ±": 2409,
      "anzÃ³": 2410,
      "ase": 2411,
      "Ġopciones": 2412,
      "cido": 2413,
      "Ġcap": 2414,
      "Ġcasi": 2415,
      "Ġesfuerzos": 2416,
      "anstreek": 2417,
      "ĠsentenciÃ³": 2418,
      "ĠZaanstreek": 2419,
      "Ġfalta": 2420,
      "Ġconsolidando": 2421,
      "28": 2422,
      "Ġsal": 2423,
      "Ġ84": 2424,
      "Ġencontrar": 2425,
      "ĠDavid": 2426,
      "queda": 2427,
      "Ġapasion": 2428,
      "Ġcambi": 2429,
      "ĠInterna": 2430,
      "dado": 2431,
      "verton": 2432,
      "Ġvuelta": 2433,
      "ĠMartÃŃnez": 2434,
      "ĠÃŃ": 2435,
      "Ġcr": 2436,
      "Ġveces": 2437,
      "ĠPe": 2438,
      "ĠGra": 2439,
      "ĠbÃºs": 2440,
      "ĠMonaco": 2441,
      "ĠbÃºsqueda": 2442,
      "Ġporque": 2443,
      "urne": 2444,
      "ĠsituaciÃ³n": 2445,
      "ĠAllianz": 2446,
      "Futbol": 2447,
      "titud": 2448,
      "ĠGu": 2449,
      "acles": 2450,
      "Ġcanto": 2451,
      "Ġexpectativa": 2452,
      "uolo": 2453,
      "yo": 2454,
      "ĠSass": 2455,
      "ĠpitÃ³": 2456,
      "ĠSassuolo": 2457,
      "ĠCr": 2458,
      "ombre": 2459,
      "Ġvida": 2460,
      "ĠMat": 2461,
      "enoa": 2462,
      "Ġcarac": 2463,
      "Ġconcluy": 2464,
      "ĠBalompiÃ©": 2465,
      "rin": 2466,
      "ĠGron": 2467,
      "Ġdecidido": 2468,
      "ner": 2469,
      "uri": 2470,
      "ĠlÃŃ": 2471,
      "ĠBa": 2472,
      "Ġdesbor": 2473,
      "Ġllevarse": 2474,
      "Ġeurope": 2475,
      "ĠZw": 2476,
      "Ġpod": 2477,
      "Ġfuera": 2478,
      "aux": 2479,
      "Ġmediocampo": 2480,
      "ĠsueÃ±os": 2481,
      "Ġcaracter": 2482,
      "iro": 2483,
      "ĠGroningen": 2484,
      "gu": 2485,
      "gladbach": 2486,
      "dia": 2487,
      "Ġestuvo": 2488,
      "ĠMÃ¶": 2489,
      "Ġprop": 2490,
      "nchengladbach": 2491,
      "ĠBerga": 2492,
      "Ġbrillante": 2493,
      "Ġdistancias": 2494,
      "ian": 2495,
      "Ã´": 2496,
      "erg": 2497,
      "ĠAtalanta": 2498,
      "Ġpues": 2499,
      "ut": 2500,
      "Ġasi": 2501,
      "Ġch": 2502,
      "lian": 2503,
      "uento": 2504,
      "veen": 2505,
      "Ġmedio": 2506,
      "Ġdescuento": 2507,
      "ulouse": 2508,
      "Ġperman": 2509,
      "erenveen": 2510,
      "ĠSocietÃł": 2511,
      "ĠMÃ¶nchengladbach": 2512,
      "vante": 2513,
      "zando": 2514,
      "ĠCagliari": 2515,
      "lez": 2516,
      "Association": 2517,
      "ĠBourne": 2518,
      "Ġpuede": 2519,
      "ĠQ": 2520,
      "ciente": 2521,
      "ora": 2522,
      "ĠFlor": 2523,
      "ĠRacing": 2524,
      "tuvi": 2525,
      "ĠHeerenveen": 2526,
      "Ġesperar": 2527,
      "ĠNice": 2528,
      "ĠBournemouth": 2529,
      "ile": 2530,
      "vos": 2531,
      "ĠpÃº": 2532,
      "Ã³nica": 2533,
      "ĠtenÃŃa": 2534,
      "cos": 2535,
      "este": 2536,
      "porti": 2537,
      "blico": 2538,
      "ĠpÃºblico": 2539,
      "arÃŃa": 2540,
      "ĠAlav": 2541,
      "ĠBologna": 2542,
      "ĠGo": 2543,
      "ĠKÃ¶": 2544,
      "Ġintensa": 2545,
      "Ġprecisa": 2546,
      "ĠAlavÃ©s": 2547,
      "ayer": 2548,
      "tiene": 2549,
      "Paris": 2550,
      "lon": 2551,
      "rse": 2552,
      "xim": 2553,
      "taba": 2554,
      "ĠHen": 2555,
      "ial": 2556,
      "deaux": 2557,
      "ĠAS": 2558,
      "Ġdespa": 2559,
      "Ġinme": 2560,
      "Ġtrav": 2561,
      "tesse": 2562,
      "ĠBordeaux": 2563,
      "eu": 2564,
      "tford": 2565,
      "Ġsol": 2566,
      "Ġmon": 2567,
      "ĠRas": 2568,
      "ĠLevante": 2569,
      "ient": 2570,
      "than": 2571,
      "ĠLorient": 2572,
      "Ġconsigo": 2573,
      "Ġsilen": 2574,
      "27": 2575,
      "Ġclas": 2576,
      "orca": 2577,
      "Ġviento": 2578,
      "Ġentrega": 2579,
      "ĠJuan": 2580,
      "ĠtÃ¡ctico": 2581,
      "Ġsalida": 2582,
      "FB": 2583,
      "No": 2584,
      "jar": 2585,
      "Ã£": 2586,
      "ĠPr": 2587,
      "ĠtomÃ³": 2588,
      "masca": 2589,
      "ĠBergamasca": 2590,
      "500": 2591,
      "Ball": 2592,
      "ft": 2593,
      "iva": 2594,
      "ĠDFB": 2595,
      "ĠMainz": 2596,
      "Ġerror": 2597,
      "okal": 2598,
      "Pokal": 2599,
      "Ġlargo": 2600,
      "ĠSÃ¡n": 2601,
      "ĠalzÃ³": 2602,
      "ĠAlkmaar": 2603,
      "chez": 2604,
      "ĠSÃ¡nchez": 2605,
      "Ã®": 2606,
      "ciembre": 2607,
      "ĠSC": 2608,
      "Ġfu": 2609,
      "Ġdiciembre": 2610,
      "Ġfeb": 2611,
      "ĠMallorca": 2612,
      "esa": 2613,
      "ink": 2614,
      "ĠDie": 2615,
      "laga": 2616,
      "Ġjug": 2617,
      "Ġobra": 2618,
      "gio": 2619,
      "Ã¡laga": 2620,
      "ĠEintracht": 2621,
      "Ġdese": 2622,
      "ulce": 2623,
      "Ġjugado": 2624,
      "Ġescri": 2625,
      "ĠrindiÃ³": 2626,
      "Ya": 2627,
      "st": 2628,
      "zur": 2629,
      "zion": 2630,
      "ĠtÃŃ": 2631,
      "Ġsporti": 2632,
      "ĠCD": 2633,
      "ĠSportverein": 2634,
      "ĠMilano": 2635,
      "ĠInternazion": 2636,
      "Ġfebrero": 2637,
      "Ġsportive": 2638,
      "ĠInternazionale": 2639,
      "ĠCa": 2640,
      "Ġvis": 2641,
      "Ġcuatro": 2642,
      "ĠRed": 2643,
      "Ġdefinitivo": 2644,
      "29": 2645,
      "Ġat": 2646,
      "Ġojos": 2647,
      "Ġresp": 2648,
      "aya": 2649,
      "ĠAlber": 2650,
      "Ġhabi": 2651,
      "ĠPor": 2652,
      "Ġvel": 2653,
      "lig": 2654,
      "ulham": 2655,
      "Ġdoble": 2656,
      "parta": 2657,
      "Ġ1893": 2658,
      "Ġderro": 2659,
      "ln": 2660,
      "ub": 2661,
      "ciar": 2662,
      "ĠSo": 2663,
      "Ġeso": 2664,
      "Ġdesen": 2665,
      "Ġfuerza": 2666,
      "ĠWolfsburg": 2667,
      "ĠKÃ¶ln": 2668,
      "ĠtravÃ©s": 2669,
      "Le": 2670,
      "NA": 2671,
      "bas": 2672,
      "osos": 2673,
      "lem": 2674,
      "Ġfase": 2675,
      "ĠGe": 2676,
      "ifica": 2677,
      "ĠAntonio": 2678,
      "ck": 2679,
      "sasuna": 2680,
      "Ġrendi": 2681,
      "To": 2682,
      "bado": 2683,
      "enBall": 2684,
      "ĠfinalizÃ³": 2685,
      "etz": 2686,
      "Ã¼b": 2687,
      "ĠBayer": 2688,
      "Ġdemostrando": 2689,
      "Ġinesperado": 2690,
      "enBallsport": 2691,
      "Hasta": 2692,
      "Ã¡m": 2693,
      "ĠFernÃ¡ndez": 2694,
      "Ġdifer": 2695,
      "illem": 2696,
      "ĠSam": 2697,
      "Ġval": 2698,
      "Ġguar": 2699,
      "Ġdin": 2700,
      "Ġdanza": 2701,
      "chaft": 2702,
      "ĠOsasuna": 2703,
      "Ġ1907": 2704,
      "Ġnuevo": 2705,
      "ĠThom": 2706,
      "ĠconcluyÃ³": 2707,
      "Ġsac": 2708,
      "diendo": 2709,
      "ĠLas": 2710,
      "ecu": 2711,
      "ama": 2712,
      "ĠJe": 2713,
      "meins": 2714,
      "mpiÃ³": 2715,
      "ĠSportge": 2716,
      "Ġhaber": 2717,
      "Ġrecordar": 2718,
      "ĠlÃŃne": 2719,
      "meinschaft": 2720,
      "ĠSportgemeinschaft": 2721,
      "ĠAG": 2722,
      "ĠBSC": 2723,
      "ĠTe": 2724,
      "Ġvitales": 2725,
      "Ġasientos": 2726,
      "21": 2727,
      "dt": 2728,
      "Ġcre": 2729,
      "ĠLens": 2730,
      "Ġgar": 2731,
      "inalmente": 2732,
      "ĠII": 2733,
      "ĠArn": 2734,
      "ĠLucas": 2735,
      "ĠsensaciÃ³n": 2736,
      "arÃ¡": 2737,
      "Ã¡lez": 2738,
      "viembre": 2739,
      "Ġnoviembre": 2740,
      "sivas": 2741,
      "ĠHernÃ¡ndez": 2742,
      "ĠFuÃŁballclub": 2743,
      "Ġdestello": 2744,
      "Ġasegur": 2745,
      "Al": 2746,
      "Fu": 2747,
      "Ġreplantear": 2748,
      "bs": 2749,
      "gue": 2750,
      "imo": 2751,
      "melo": 2752,
      "ua": 2753,
      "ĠCrystal": 2754,
      "ĠSouthampton": 2755,
      "ĠUniÃ³n": 2756,
      "Ġdig": 2757,
      "ĠFortuna": 2758,
      "Ġapasionante": 2759,
      "cil": 2760,
      "ĠCom": 2761,
      "Ġguer": 2762,
      "ĠKar": 2763,
      "ĠReim": 2764,
      "Ġtalento": 2765,
      "ĠReims": 2766,
      "20": 2767,
      "oven": 2768,
      "tÃ©n": 2769,
      "Ġmul": 2770,
      "ficiente": 2771,
      "Ġ46": 2772,
      "ĠLeicester": 2773,
      "iones": 2774,
      "ĠrompiÃ³": 2775,
      "ĠllenÃ³": 2776,
      "ĠGonzÃ¡lez": 2777,
      "30": 2778,
      "ĠautÃ©n": 2779,
      "Ch": 2780,
      "bin": 2781,
      "ĠGui": 2782,
      "Ã¡ndose": 2783,
      "Ġconstante": 2784,
      "ĠFeli": 2785,
      "lid": 2786,
      "Ġban": 2787,
      "hem": 2788,
      "ĠHertha": 2789,
      "Ġdoblete": 2790,
      "Ġplan": 2791,
      "iss": 2792,
      "ĠAb": 2793,
      "raba": 2794,
      "ecer": 2795,
      "Ġmarcaba": 2796,
      "ĠHel": 2797,
      "ĠUdinese": 2798,
      "Ġejecu": 2799,
      "ler": 2800,
      "dida": 2801,
      "Ã¡tico": 2802,
      "amin": 2803,
      "Ġreafirmando": 2804,
      "ĠdespachÃ³": 2805,
      "Ġdiferencia": 2806,
      "Ġmen": 2807,
      "dieron": 2808,
      "tera": 2809,
      "Ġmarco": 2810,
      "ĠAlmelo": 2811,
      "Ġagrid": 2812,
      "Ġtransfor": 2813,
      "ueÃ±o": 2814,
      "Ġenero": 2815,
      "ĠCol": 2816,
      "ĠRi": 2817,
      "ĠRayo": 2818,
      "verhamp": 2819,
      "Ġru": 2820,
      "Ġobs": 2821,
      "ĠChristian": 2822,
      "ĠsorprendiÃ³": 2823,
      "Ġsigui": 2824,
      "Ã£o": 2825,
      "verhampton": 2826,
      "piele": 2827,
      "ĠSil": 2828,
      "ĠBew": 2829,
      "ĠDar": 2830,
      "Ġdominar": 2831,
      "egung": 2832,
      "Ġmemorable": 2833,
      "ĠprÃ³xim": 2834,
      "Ġimportan": 2835,
      "sspiele": 2836,
      "ĠThomas": 2837,
      "ĠBewegung": 2838,
      "ĠBewegungsspiele": 2839,
      "jando": 2840,
      "Ġcal": 2841,
      "ĠLo": 2842,
      "amo": 2843,
      "tubre": 2844,
      "Ġimpon": 2845,
      "ĠParis": 2846,
      "Ġoctubre": 2847,
      "Ġhacerse": 2848,
      "Ġagridulce": 2849,
      "De": 2850,
      "cu": 2851,
      "gel": 2852,
      "truc": 2853,
      "ĠEd": 2854,
      "ĠilusiÃ³n": 2855,
      "Ġtribunas": 2856,
      "ĠseÃ±ores": 2857,
      "ĠDiego": 2858,
      "udÃ³": 2859,
      "Ã¸": 2860,
      "Ġjoven": 2861,
      "ĠvibrÃ³": 2862,
      "ĠJames": 2863,
      "ĠtÃŃtulo": 2864,
      "mpoli": 2865,
      "viÄĩ": 2866,
      "Ġaspira": 2867,
      "ĠMario": 2868,
      "Ġacciones": 2869,
      "head": 2870,
      "ibar": 2871,
      "Ġorgan": 2872,
      "ĠAndre": 2873,
      "Ġjugadores": 2874,
      "Ġmultitud": 2875,
      "65": 2876,
      "Ġda": 2877,
      "ales": 2878,
      "ĠSim": 2879,
      "ĠEmpoli": 2880,
      "ĠPierre": 2881,
      "quier": 2882,
      "tÃ¡n": 2883,
      "Ġluch": 2884,
      "ĠFutbol": 2885,
      "Ġsabe": 2886,
      "cano": 2887,
      "Ġalto": 2888,
      "uir": 2889,
      "ĠRos": 2890,
      "ĠDes": 2891,
      "ĠTom": 2892,
      "ĠDeportiva": 2893,
      "ks": 2894,
      "rÃ©": 2895,
      "Ġaumen": 2896,
      "ĠGy": 2897,
      "ĠJona": 2898,
      "lli": 2899,
      "Ġfran": 2900,
      "megen": 2901,
      "thony": 2902,
      "Ġdirec": 2903,
      "ijmegen": 2904,
      "urnley": 2905,
      "Ġaliento": 2906,
      "ya": 2907,
      "ĠJÃ©r": 2908,
      "Ġllega": 2909,
      "ĠAnthony": 2910,
      "Ġexhi": 2911,
      "ĠdesarrollÃ³": 2912,
      "ĠVallecano": 2913,
      "tazo": 2914,
      "Ġentrel": 2915,
      "ismo": 2916,
      "viv": 2917,
      "Ġllegar": 2918,
      "GOOOL": 2919,
      "Ġmayores": 2920,
      "Ã¡mica": 2921,
      "pen": 2922,
      "tz": 2923,
      "ena": 2924,
      "ĠMetz": 2925,
      "tur": 2926,
      "Ġmovi": 2927,
      "RK": 2928,
      "adi": 2929,
      "ĠBrighton": 2930,
      "ĠGenoa": 2931,
      "reno": 2932,
      "Ġdrama": 2933,
      "Ġjugador": 2934,
      "Ġco": 2935,
      "Ġmane": 2936,
      "traciÃ³n": 2937,
      "Ġcontundencia": 2938,
      "tivas": 2939,
      "ĠMos": 2940,
      "ĠMas": 2941,
      "ĠBull": 2942,
      "ĠEibar": 2943,
      "ĠAston": 2944,
      "Ġposicion": 2945,
      "ĠSchal": 2946,
      "Los": 2947,
      "Ġatr": 2948,
      "olle": 2949,
      "ise": 2950,
      "ĠSw": 2951,
      "Ġesti": 2952,
      "ĠFo": 2953,
      "ĠbuscÃ³": 2954,
      "Ġganas": 2955,
      "tik": 2956,
      "ĠsumÃ³": 2957,
      "Ġabril": 2958,
      "Ġcorrec": 2959,
      "Ġarti": 2960,
      "Ġocas": 2961,
      "Arsenal": 2962,
      "ĠHellas": 2963,
      "ben": 2964,
      "dins": 2965,
      "ĠCam": 2966,
      "Ġlogrando": 2967,
      "Ġefica": 2968,
      "ĠGirondins": 2969,
      "ĠJonathan": 2970,
      "fun": 2971,
      "hn": 2972,
      "Ġfigu": 2973,
      "Ġgig": 2974,
      "ĠUnion": 2975,
      "Ġoportunidad": 2976,
      "Ġpermitiendo": 2977,
      "ĠArnhem": 2978,
      "ĠSchalke": 2979,
      "Ġfigura": 2980,
      "usta": 2981,
      "Ġcen": 2982,
      "ĠEverton": 2983,
      "terÃŃa": 2984,
      "ĠAngers": 2985,
      "Ġtemplo": 2986,
      "Ġarranque": 2987,
      "FuÃŁball": 2988,
      "Liverpool": 2989,
      "Ã¨": 2990,
      "ĠAdri": 2991,
      "ĠEag": 2992,
      "roy": 2993,
      "allado": 2994,
      "porte": 2995,
      "Ġimpre": 2996,
      "Ġllevando": 2997,
      "ĠMontpellier": 2998,
      "tiago": 2999,
      "ĠEagles": 3000,
      "feren": 3001,
      "menta": 3002,
      "pos": 3003,
      "tral": 3004,
      "Ġvon": 3005,
      "Ġnotable": 3006,
      "ĠHSC": 3007,
      "Ġgrabado": 3008,
      "ĠacciÃ³n": 3009,
      "ĠSantiago": 3010,
      "ĠPaul": 3011,
      "ĠGranada": 3012,
      "ĠpoderÃŃo": 3013,
      "Ã¼bÃ¼": 3014,
      "Ġt": 3015,
      "Ġcierre": 3016,
      "ĠCer": 3017,
      "ĠSparta": 3018,
      "ĠVallado": 3019,
      "Ġacto": 3020,
      "Ġorden": 3021,
      "Ġtemprano": 3022,
      "ĠadelantÃ³": 3023,
      "Ġdigno": 3024,
      "ĠValladolid": 3025,
      "gre": 3026,
      "xcel": 3027,
      "oni": 3028,
      "ĠCris": 3029,
      "sior": 3030,
      "ĠVic": 3031,
      "Ġdejar": 3032,
      "ĠTur": 3033,
      "ĠJes": 3034,
      "zaba": 3035,
      "pez": 3036,
      "ijk": 3037,
      "rasile": 3038,
      "Ġbuscaba": 3039,
      "mpetu": 3040,
      "ĠÃŃmpetu": 3041,
      "xcelsior": 3042,
      "ppe": 3043,
      "alo": 3044,
      "ĠBern": 3045,
      "vers": 3046,
      "ĠMate": 3047,
      "gor": 3048,
      "hon": 3049,
      "Ġatra": 3050,
      "ĠPo": 3051,
      "ĠWander": 3052,
      "Ġdescuido": 3053,
      "ĠToulouse": 3054,
      "Ġcargado": 3055,
      "ĠOlimpico": 3056,
      "Ġgoleador": 3057,
      "ĠWanderers": 3058,
      "ĠCra": 3059,
      "Ġsep": 3060,
      "diata": 3061,
      "bai": 3062,
      "Ġsilbatazo": 3063,
      "ĠelevÃ³": 3064,
      "Ġinmediata": 3065,
      "don": 3066,
      "ger": 3067,
      "Ġmi": 3068,
      "ĠAFC": 3069,
      "bier": 3070,
      "Ã©m": 3071,
      "ĠhabÃŃan": 3072,
      "ĠGian": 3073,
      "ĠGiuse": 3074,
      "ĠZwolle": 3075,
      "ĠGiuseppe": 3076,
      "46": 3077,
      "Verein": 3078,
      "cÃ³": 3079,
      "Ġlograron": 3080,
      "Ġ1909": 3081,
      "ĠvistiÃ³": 3082,
      "uk": 3083,
      "ent": 3084,
      "ardo": 3085,
      "uno": 3086,
      "bir": 3087,
      "Ġdesn": 3088,
      "Ġtraba": 3089,
      "Ġsellar": 3090,
      "ĠefÃŃ": 3091,
      "Ġsilencio": 3092,
      "Ġesa": 3093,
      "Ã³naco": 3094,
      "Ġhe": 3095,
      "uste": 3096,
      "ĠNa": 3097,
      "ĠHeracles": 3098,
      "Ġpalp": 3099,
      "Ġenfrentamiento": 3100,
      "taleza": 3101,
      "diz": 3102,
      "ĠMÃ³naco": 3103,
      "Ġsur": 3104,
      "ĠVol": 3105,
      "Ġcuar": 3106,
      "trasbo": 3107,
      "Ġmarzo": 3108,
      "ĠadueÃ±": 3109,
      "Ġderrota": 3110,
      "trasbourg": 3111,
      "Ġmano": 3112,
      "ĠLui": 3113,
      "Ġsuficiente": 3114,
      "Ġportero": 3115,
      "ieron": 3116,
      "ph": 3117,
      "yan": 3118,
      "Ã³me": 3119,
      "Ġlata": 3120,
      "ĠStrasbourg": 3121,
      "Ġestrel": 3122,
      "Ġprimero": 3123,
      "Ġmanten": 3124,
      "Ġexplos": 3125,
      "Ġimportancia": 3126,
      "CD": 3127,
      "FA": 3128,
      "ĠuniÃ³": 3129,
      "trie": 3130,
      "ĠHu": 3131,
      "ĠTil": 3132,
      "Ġvivi": 3133,
      "ller": 3134,
      "piel": 3135,
      "Ġterreno": 3136,
      "ĠForest": 3137,
      "Ġtribuna": 3138,
      "Ġaspiraciones": 3139,
      "Spiel": 3140,
      "lvar": 3141,
      "tiu": 3142,
      "Ġseis": 3143,
      "Ã¡c": 3144,
      "Ġredes": 3145,
      "eds": 3146,
      "ĠDeportiu": 3147,
      "betrie": 3148,
      "ĠÃģlvar": 3149,
      "ĠcelebraciÃ³n": 3150,
      "Spielbetrie": 3151,
      "Spielbetriebs": 3152,
      "Eindhovense": 3153,
      "fera": 3154,
      "ela": 3155,
      "ĠNe": 3156,
      "Ġpresion": 3157,
      "Ġpregun": 3158,
      "anno": 3159,
      "Ġfutu": 3160,
      "ĠautÃ©ntico": 3161,
      "Ġobstante": 3162,
      "Ġexhibi": 3163,
      "AFC": 3164,
      "mn": 3165,
      "vin": 3166,
      "taciÃ³n": 3167,
      "osas": 3168,
      "ĠSit": 3169,
      "ula": 3170,
      "Ġhay": 3171,
      "ood": 3172,
      "ĠWillem": 3173,
      "Ġacer": 3174,
      "Ġclaridad": 3175,
      "Ġevidenciando": 3176,
      "ĠSittar": 3177,
      "Bayer": 3178,
      "yn": 3179,
      "ĠAhead": 3180,
      "ĠFulham": 3181,
      "Ġgiro": 3182,
      "Ġhu": 3183,
      "tiembre": 3184,
      "ĠOr": 3185,
      "Ġsinfon": 3186,
      "ĠYo": 3187,
      "ĠGymn": 3188,
      "Ġseptiembre": 3189,
      "ĠsinfonÃŃa": 3190,
      "ĠGymnaste": 3191,
      "Ġconten": 3192,
      "ĠMÃ¡laga": 3193,
      "ĠBru": 3194,
      "ĠThe": 3195,
      "Ġtiro": 3196,
      "Ġreple": 3197,
      "Ġrecuperar": 3198,
      "ĠPSG": 3199,
      "Ġautoridad": 3200,
      "Ġveloci": 3201,
      "Azur": 3202,
      "Her": 3203,
      "sfera": 3204,
      "tting": 3205,
      "wa": 3206,
      "ĠunÃŃ": 3207,
      "ĠCas": 3208,
      "ĠCÃ´": 3209,
      "ĠTra": 3210,
      "med": 3211,
      "ĠSergio": 3212,
      "ĠLuca": 3213,
      "sono": 3214,
      "ĠBerlin": 3215,
      "Ġdudas": 3216,
      "Ġestableciendo": 3217,
      "ttingham": 3218,
      "ĠunÃŃsono": 3219,
      "ĠCÃ´te": 3220,
      "bol": 3221,
      "Ġnombre": 3222,
      "Ġcomienzo": 3223,
      "tÃ¡dio": 3224,
      "cep": 3225,
      "ĠserÃŃa": 3226,
      "mÃ³sfera": 3227,
      "Ġletal": 3228,
      "rigiÃ³": 3229,
      "ĠatmÃ³sfera": 3230,
      "DO": 3231,
      "garon": 3232,
      "Ġdeli": 3233,
      "Ġparidad": 3234,
      "arco": 3235,
      "ĠGri": 3236,
      "tarse": 3237,
      "paba": 3238,
      "ĠambiciÃ³n": 3239,
      "Ġencontraron": 3240,
      "ridge": 3241,
      "Ġvelocidad": 3242,
      "Ju": 3243,
      "Ma": 3244,
      "Ġz": 3245,
      "Ġmarcada": 3246,
      "ĠKo": 3247,
      "ĠMoham": 3248,
      "ito": 3249,
      "Ġconfi": 3250,
      "ĠRon": 3251,
      "Ġing": 3252,
      "Ġansi": 3253,
      "Ġsusur": 3254,
      "Ġigualdad": 3255,
      "Ġgrandes": 3256,
      "Ġpotente": 3257,
      "Ġrevertir": 3258,
      "Ġdetuvo": 3259,
      "ases": 3260,
      "Ġfra": 3261,
      "Ġsuy": 3262,
      "Ġpaso": 3263,
      "ĠEstÃ¡dio": 3264,
      "Ġ1900": 3265,
      "ĠDubai": 3266,
      "ĠTeam": 3267,
      "rich": 3268,
      "ĠerigiÃ³": 3269,
      "aldo": 3270,
      "ĠBr": 3271,
      "mbo": 3272,
      "Ġfinaliz": 3273,
      "istas": 3274,
      "Ġsorpresa": 3275,
      "Bre": 3276,
      "uta": 3277,
      "ves": 3278,
      "ĠSD": 3279,
      "lace": 3280,
      "ĠGre": 3281,
      "ign": 3282,
      "Ġfinales": 3283,
      "ĠConferen": 3284,
      "ĠVitesse": 3285,
      "Ġmismo": 3286,
      "ĠÃ©p": 3287,
      "Ġocaso": 3288,
      "ĠConference": 3289,
      "Ġtiene": 3290,
      "eri": 3291,
      "Ġpita": 3292,
      "ĠVer": 3293,
      "Ġcerrando": 3294,
      "Ġcomenz": 3295,
      "Ġanotar": 3296,
      "ĠtranscurriÃ³": 3297,
      "dy": 3298,
      "wijk": 3299,
      "dera": 3300,
      "dable": 3301,
      "Ã©c": 3302,
      "ustr": 3303,
      "ĠJon": 3304,
      "Ġiba": 3305,
      "Ġ05": 3306,
      "ĠSud": 3307,
      "Ġescu": 3308,
      "Ġguarda": 3309,
      "ĠprÃ³ximos": 3310,
      "gos": 3311,
      "Ġden": 3312,
      "ansea": 3313,
      "cida": 3314,
      "ĠBurnley": 3315,
      "Ġamar": 3316,
      "Ġdisf": 3317,
      "Ġcomprom": 3318,
      "giÃ³": 3319,
      "tagne": 3320,
      "Ġforma": 3321,
      "Ġclasifica": 3322,
      "Ġdesenlace": 3323,
      "annover": 3324,
      "mio": 3325,
      "ĠâĢ": 3326,
      "aria": 3327,
      "ĠCla": 3328,
      "Ġalc": 3329,
      "ĠDann": 3330,
      "ĠPÃ©": 3331,
      "ievo": 3332,
      "azza": 3333,
      "ĠHove": 3334,
      "ĠMeazza": 3335,
      "'.": 3336,
      "mba": 3337,
      "esto": 3338,
      "iso": 3339,
      "Ġgala": 3340,
      "ella": 3341,
      "Ġintento": 3342,
      "anzar": 3343,
      "Ġfranc": 3344,
      "ĠatrÃ¡s": 3345,
      "Bretagne": 3346,
      "essi": 3347,
      "Ġsomb": 3348,
      "Ġgru": 3349,
      "ĠMam": 3350,
      "ĠEend": 3351,
      "racht": 3352,
      "Ġdefens": 3353,
      "ĠAlmer": 3354,
      "Ġacor": 3355,
      "Ġsido": 3356,
      "ĠfutbolÃŃstica": 3357,
      "Ġchis": 3358,
      "Ġgigante": 3359,
      "Ġpalpable": 3360,
      "ĠEendracht": 3361,
      "Ġarco": 3362,
      "drik": 3363,
      "ĠÃºltimos": 3364,
      "Ġcompetitividad": 3365,
      "Ġvencido": 3366,
      "Ġgenerando": 3367,
      "Ġajusta": 3368,
      "ĠefÃŃmer": 3369,
      "Ġdelirio": 3370,
      "Juventus": 3371,
      "Ġconfianza": 3372,
      "ĠclasificaciÃ³n": 3373,
      "eert": 3374,
      "zet": 3375,
      "ĠBry": 3376,
      "ĠDom": 3377,
      "ĠPed": 3378,
      "Ġgrande": 3379,
      "ĠdecidiÃ³": 3380,
      "Ġmisma": 3381,
      "83": 3382,
      "Newcastle": 3383,
      "fica": 3384,
      "mÃ¡n": 3385,
      "xe": 3386,
      "Ġful": 3387,
      "ĠAy": 3388,
      "ĠMol": 3389,
      "Ġsuti": 3390,
      "Ġhicieron": 3391,
      "ĠManuel": 3392,
      "Ġpermanencia": 3393,
      "ĠAlberto": 3394,
      "ĠfrancÃ©s": 3395,
      "Ġpin": 3396,
      "Ġpie": 3397,
      "Ġcontin": 3398,
      "Ġcongre": 3399,
      "Ġoy": 3400,
      "immer": 3401,
      "Ġbuscar": 3402,
      "ĠDaniele": 3403,
      "Se": 3404,
      "ux": 3405,
      "Ġci": 3406,
      "alwijk": 3407,
      "ĠGarc": 3408,
      "ĠOn": 3409,
      "ĠIb": 3410,
      "Ġrecomp": 3411,
      "Ġprome": 3412,
      "ĠAndrÃ©": 3413,
      "ĠHaag": 3414,
      "ĠFlorian": 3415,
      "45": 3416,
      "75": 3417,
      "estu": 3418,
      "Ġtranqui": 3419,
      "gilidad": 3420,
      "ĠWaalwijk": 3421,
      "ĠdurÃ³": 3422,
      "ĠFelix": 3423,
      "Ġrumbo": 3424,
      "Ġartista": 3425,
      "ĠDanny": 3426,
      "jandro": 3427,
      "ess": 3428,
      "trick": 3429,
      "Ġseguir": 3430,
      "ĠAlejandro": 3431,
      "Ġpelig": 3432,
      "ĠcrÃ³nica": 3433,
      "ĠefÃŃmera": 3434,
      "Ġoyentes": 3435,
      "by": 3436,
      "Ġdev": 3437,
      "Ġestruc": 3438,
      "ĠFri": 3439,
      "ÃŃas": 3440,
      "ĠBu": 3441,
      "ĠGro": 3442,
      "Ġblan": 3443,
      "abri": 3444,
      "adu": 3445,
      "ĠParma": 3446,
      "Ã¶r": 3447,
      "ĠpodrÃŃa": 3448,
      "Ġasegurando": 3449,
      "Ou": 3450,
      "sson": 3451,
      "Ġcontener": 3452,
      "Ġtardes": 3453,
      "Ġempu": 3454,
      "Ġcualquier": 3455,
      "ĠTilburg": 3456,
      "ĠGarcÃŃa": 3457,
      "Ouest": 3458,
      "mes": 3459,
      "Ã¯": 3460,
      "lie": 3461,
      "ĠUC": 3462,
      "Ġanti": 3463,
      "ĠKy": 3464,
      "quina": 3465,
      "ĠBenj": 3466,
      "ĠLuigi": 3467,
      "ĠPedro": 3468,
      "Ġfin": 3469,
      "ĠRic": 3470,
      "ĠGa": 3471,
      "ĠUD": 3472,
      "ĠpresentÃ³": 3473,
      "Ġculmin": 3474,
      "guez": 3475,
      "Val": 3476,
      "Ã«": 3477,
      "Ġdecep": 3478,
      "ĠAC": 3479,
      "Ġall": 3480,
      "Ġalma": 3481,
      "Ġretu": 3482,
      "ped": 3483,
      "Ġcomplicaciones": 3484,
      "ĠGianlu": 3485,
      "Ġcuarto": 3486,
      "Atalanta": 3487,
      "erse": 3488,
      "dazo": 3489,
      "Ġfren": 3490,
      "mple": 3491,
      "ĠFabi": 3492,
      "Ġvibraron": 3493,
      "Ġhaciendo": 3494,
      "Ġprofun": 3495,
      "ĠdefiniÃ³": 3496,
      "Chelsea": 3497,
      "ĠexhibiciÃ³n": 3498,
      "Viva": 3499,
      "Ġlec": 3500,
      "ĠFinalmente": 3501,
      "adora": 3502,
      "ĠGer": 3503,
      "torio": 3504,
      "onder": 3505,
      "ĠAndrea": 3506,
      "Ġpotencial": 3507,
      "Ġpuestos": 3508,
      "ĠBenjamin": 3509,
      "Eintracht": 3510,
      "ĠfÃ¡": 3511,
      "ĠFern": 3512,
      "bili": 3513,
      "ĠBrom": 3514,
      "rad": 3515,
      "Ġhoy": 3516,
      "eca": 3517,
      "Ġind": 3518,
      "vier": 3519,
      "ĠKul": 3520,
      "Ġ96": 3521,
      "Ġfavorable": 3522,
      "Ġbuena": 3523,
      "ĠPeter": 3524,
      "ĠHendrik": 3525,
      "ĠdirecciÃ³n": 3526,
      "ÅŁ": 3527,
      "ervi": 3528,
      "ĠcÃ©s": 3529,
      "ĠCamp": 3530,
      "Ġqueda": 3531,
      "bio": 3532,
      "usa": 3533,
      "ĠNimmer": 3534,
      "ĠEnde": 3535,
      "ĠRovers": 3536,
      "Ġfuerte": 3537,
      "ĠreafirmÃ³": 3538,
      "espereert": 3539,
      "ĠWolverhampton": 3540,
      "Ġitaliano": 3541,
      "ĠDesespereert": 3542,
      "ĠcÃ©sped": 3543,
      "An": 3544,
      "Athletic": 3545,
      "West": 3546,
      "fri": 3547,
      "Ġpron": 3548,
      "tois": 3549,
      "Ġrealidad": 3550,
      "Ġinci": 3551,
      "ĠGil": 3552,
      "ĠKe": 3553,
      "ĠRoad": 3554,
      "Ġconjuntos": 3555,
      "borg": 3556,
      "Ġmayor": 3557,
      "ĠMohamed": 3558,
      "Sevilla": 3559,
      "uis": 3560,
      "erk": 3561,
      "Ġpura": 3562,
      "Ġflu": 3563,
      "ĠAll": 3564,
      "ĠExcelsior": 3565,
      "ĠLew": 3566,
      "thlon": 3567,
      "Ġtotal": 3568,
      "Ġperf": 3569,
      "burger": 3570,
      "Ġtormenta": 3571,
      "Ġreflejo": 3572,
      "ĠfutbolÃŃstico": 3573,
      "Ġgarra": 3574,
      "Ġpitazo": 3575,
      "Ġdisfru": 3576,
      "ĠGianluca": 3577,
      "ling": 3578,
      "Ġemer": 3579,
      "ensa": 3580,
      "arro": 3581,
      "ÃŃguez": 3582,
      "Ġalen": 3583,
      "Ġalgun": 3584,
      "ĠLegan": 3585,
      "ablo": 3586,
      "uera": 3587,
      "ĠAnder": 3588,
      "Ġarbi": 3589,
      "Ġsentir": 3590,
      "ĠJohan": 3591,
      "âĢĻ.": 3592,
      "Ġcancha": 3593,
      "ĠNicol": 3594,
      "Ġcapitalizar": 3595,
      "Ġpropia": 3596,
      "Ġresponder": 3597,
      "ĠtransformÃ³": 3598,
      "ĠfÃ¡cil": 3599,
      "ĠLeganÃ©s": 3600,
      "id": 3601,
      "eros": 3602,
      "Ã³r": 3603,
      "icÃ³": 3604,
      "restois": 3605,
      "bias": 3606,
      "portivo": 3607,
      "aylor": 3608,
      "Ġgraba": 3609,
      "Ġperfor": 3610,
      "ĠconsolidÃ³": 3611,
      "Ġvaliosos": 3612,
      "Ġmaestro": 3613,
      "ĠFerrar": 3614,
      "tuvieron": 3615,
      "ĠSilva": 3616,
      "Ġchispa": 3617,
      "ĠcontinÃº": 3618,
      "sace": 3619,
      "Ġpens": 3620,
      "ĠEmi": 3621,
      "Ġdesb": 3622,
      "ĠDel": 3623,
      "siones": 3624,
      "ĠTaylor": 3625,
      "ĠNijmegen": 3626,
      "ĠAlsace": 3627,
      "Ġcompe": 3628,
      "enoÃ®": 3629,
      "ĠLuk": 3630,
      "ĠJohn": 3631,
      "icket": 3632,
      "cipal": 3633,
      "ĠCricket": 3634,
      "enoÃ®t": 3635,
      "maron": 3636,
      "wski": 3637,
      "Ġsa": 3638,
      "ĠsÃŃ": 3639,
      "Ġpelo": 3640,
      "Ġvai": 3641,
      "rik": 3642,
      "Ġestado": 3643,
      "tantes": 3644,
      "ĠBenoÃ®t": 3645,
      "ĠPablo": 3646,
      "ĠGÃ³me": 3647,
      "Ġrespon": 3648,
      "Ġtoque": 3649,
      "Ġcara": 3650,
      "Ġcontrolar": 3651,
      "ĠregalÃ³": 3652,
      "Ġcentro": 3653,
      "ĠGÃ³mez": 3654,
      "Ġaf": 3655,
      "Ġabier": 3656,
      "inga": 3657,
      "olu": 3658,
      "ĠSh": 3659,
      "Ġesto": 3660,
      "ĠMal": 3661,
      "ĠDon": 3662,
      "Ġdejaron": 3663,
      "ĠMark": 3664,
      "ĠÃī": 3665,
      "ĠRoberto": 3666,
      "Ġcorrecta": 3667,
      "Ġmira": 3668,
      "ĠAk": 3669,
      "tano": 3670,
      "ular": 3671,
      "iros": 3672,
      "ĠIs": 3673,
      "Ġtomar": 3674,
      "ĠcolÃ³": 3675,
      "ĠespaÃ±": 3676,
      "ĠStef": 3677,
      "Tottenham": 3678,
      "Ġeficacia": 3679,
      "bal": 3680,
      "ctor": 3681,
      "tÃŃa": 3682,
      "Ġconver": 3683,
      "Ãºl": 3684,
      "ilo": 3685,
      "ĠMath": 3686,
      "hef": 3687,
      "Ġmuy": 3688,
      "Ġcaprich": 3689,
      "Es": 3690,
      "ix": 3691,
      "ense": 3692,
      "Ġcel": 3693,
      "estra": 3694,
      "ancia": 3695,
      "into": 3696,
      "Ġmere": 3697,
      "ĠSto": 3698,
      "mpos": 3699,
      "ĠEm": 3700,
      "ĠDr": 3701,
      "ury": 3702,
      "Ġsimple": 3703,
      "Ġdecisivo": 3704,
      "Ġadver": 3705,
      "ĠGrande": 3706,
      "Ġcolocando": 3707,
      "ĠOld": 3708,
      "olvidable": 3709,
      "Alkmaar": 3710,
      "ĠadueÃ±Ã³": 3711,
      "ĠSittardia": 3712,
      "Mon": 3713,
      "Vil": 3714,
      "Å¡": 3715,
      "ison": 3716,
      "ĠSolo": 3717,
      "ĠSha": 3718,
      "ĠLon": 3719,
      "Ġjue": 3720,
      "Ġreflex": 3721,
      "ĠdirigiÃ³": 3722,
      "ĠGeor": 3723,
      "Ġguerrero": 3724,
      "Ġfragilidad": 3725,
      "ĠFerraris": 3726,
      "Villarreal": 3727,
      "Fue": 3728,
      "Lille": 3729,
      "nes": 3730,
      "Ġza": 3731,
      "deci": 3732,
      "tig": 3733,
      "tanes": 3734,
      "illo": 3735,
      "ĠNue": 3736,
      "ĠUnione": 3737,
      "Ġrespira": 3738,
      "Ġmanos": 3739,
      "ĠChievo": 3740,
      "risa": 3741,
      "ijon": 3742,
      "ĠcelebrÃ³": 3743,
      "Ġmagis": 3744,
      "ĠOliver": 3745,
      "Ġequilibrado": 3746,
      "ĠcolocÃ³": 3747,
      "ĠMunuera": 3748,
      "Ġeuropeo": 3749,
      "ĠlÃŃnea": 3750,
      "Ġmenos": 3751,
      "Ġsiguiente": 3752,
      "ĠJesÃºs": 3753,
      "Ġgrabada": 3754,
      "Ġpelota": 3755,
      "36": 3756,
      "gas": 3757,
      "icipal": 3758,
      "vÃ©n": 3759,
      "Ġens": 3760,
      "Ġfun": 3761,
      "tenciÃ³n": 3762,
      "Ġencuentros": 3763,
      "Ġlleva": 3764,
      "ĠArte": 3765,
      "Ġtermin": 3766,
      "Ġrecorda": 3767,
      "Ġefectiva": 3768,
      "Ġtitanes": 3769,
      "Ġfortaleza": 3770,
      "Ġmediocamp": 3771,
      "ĠMunicipal": 3772,
      "Ġdurante": 3773,
      "ĠJÃ©rÃ©m": 3774,
      "ĠPÃ©rez": 3775,
      "ĠvaivÃ©n": 3776,
      "Ġmagistral": 3777,
      "Racing": 3778,
      "pp": 3779,
      "Â¿": 3780,
      "ĠAban": 3781,
      "ĠMessi": 3782,
      "Ġdesvan": 3783,
      "fitr": 3784,
      "Ġanfitr": 3785,
      "Ġpresenciar": 3786,
      "Ġquer": 3787,
      "ĠsaliÃ³": 3788,
      "Ġnecesidad": 3789,
      "Ġorganiza": 3790,
      "Ġpromete": 3791,
      "heffield": 3792,
      "ĠAbanca": 3793,
      "38": 3794,
      "daron": 3795,
      "fÃŃ": 3796,
      "ene": 3797,
      "tiano": 3798,
      "Ġinolvidable": 3799,
      "ĠTroy": 3800,
      "ĠUE": 3801,
      "ĠOs": 3802,
      "Ġabra": 3803,
      "ĠRodr": 3804,
      "ĠSportclub": 3805,
      "ĠanotaciÃ³n": 3806,
      "ichard": 3807,
      "Ġoro": 3808,
      "ĠsoÃ±ar": 3809,
      "Ġcompetencia": 3810,
      "ĠRodrÃŃguez": 3811,
      "ARK": 3812,
      "tebol": 3813,
      "tana": 3814,
      "ĠBente": 3815,
      "ĠJavi": 3816,
      "Ġapla": 3817,
      "Ġemblem": 3818,
      "Ġgrada": 3819,
      "eiden": 3820,
      "Ġrayo": 3821,
      "ĠemergiÃ³": 3822,
      "34": 3823,
      "35": 3824,
      "ÄŁ": 3825,
      "esÃŃa": 3826,
      "Ġsiendo": 3827,
      "ĠLi": 3828,
      "Ã©u": 3829,
      "Ġbel": 3830,
      "abÃ©u": 3831,
      "ĠNor": 3832,
      "Ġpoeta": 3833,
      "Ġreflejando": 3834,
      "Ġdelantera": 3835,
      "Ġgenerar": 3836,
      "Ġitaliana": 3837,
      "ĠBernabÃ©u": 3838,
      "ĠexplosiÃ³n": 3839,
      "ĠMamÃ©s": 3840,
      "Valencia": 3841,
      "ars": 3842,
      "Ġada": 3843,
      "Ġplante": 3844,
      "chos": 3845,
      "Ġbr": 3846,
      "ĠJun": 3847,
      "ionel": 3848,
      "ĠWes": 3849,
      "Ġabriendo": 3850,
      "ĠcapitalizÃ³": 3851,
      "Ġdestacada": 3852,
      "ficÃ³": 3853,
      "ĠaumentÃ³": 3854,
      "ĠBromwich": 3855,
      "ĠKulÃ¼bÃ¼": 3856,
      "sch": 3857,
      "Ġol": 3858,
      "Ġamed": 3859,
      "Ã³pez": 3860,
      "Ġmayo": 3861,
      "tiz": 3862,
      "ĠAg": 3863,
      "ĠADO": 3864,
      "ĠLionel": 3865,
      "ĠLÃ³pez": 3866,
      "Ġparti": 3867,
      "Ġdesor": 3868,
      "ĠporterÃŃa": 3869,
      "Ġimpres": 3870,
      "Ġcomple": 3871,
      "Ġbuscaron": 3872,
      "Ġposiciones": 3873,
      "Ġsign": 3874,
      "ĠSalz": 3875,
      "ĠcapÃŃ": 3876,
      "Ġpronto": 3877,
      "Ġadap": 3878,
      "Fe": 3879,
      "dÃŃa": 3880,
      "hor": 3881,
      "ys": 3882,
      "Ġclub": 3883,
      "Ġelab": 3884,
      "osto": 3885,
      "olviÃ³": 3886,
      "Ġesquina": 3887,
      "tÃ³r": 3888,
      "Ġvibrando": 3889,
      "Ġcomenzaba": 3890,
      "ĠTobias": 3891,
      "Ġvaliosa": 3892,
      "Ġgrupos": 3893,
      "kin": 3894,
      "zas": 3895,
      "Ġeter": 3896,
      "Ġcli": 3897,
      "tili": 3898,
      "tieron": 3899,
      "Ġfesti": 3900,
      "ĠAde": 3901,
      "Ġesos": 3902,
      "Ġescas": 3903,
      "Ġtradu": 3904,
      "ĠHak": 3905,
      "Ġrecibir": 3906,
      "Ġpromesa": 3907,
      "ĠhacÃŃa": 3908,
      "Ġagosto": 3909,
      "Ġromp": 3910,
      "ĠBastia": 3911,
      "ĠQu": 3912,
      "ĠRasenBallsport": 3913,
      "ĠPorto": 3914,
      "ĠdinÃ¡mica": 3915,
      "Ġfestival": 3916,
      "Turn": 3917,
      "ju": 3918,
      "udad": 3919,
      "ĠSi": 3920,
      "Ġconv": 3921,
      "Ã¡diz": 3922,
      "ĠGio": 3923,
      "Ġamargo": 3924,
      "Ġdefin": 3925,
      "ĠPalmas": 3926,
      "ĠSebas": 3927,
      "Ġcontragol": 3928,
      "Ġenfrentaron": 3929,
      "Ġretumb": 3930,
      "ĠespaÃ±ol": 3931,
      "79": 3932,
      "For": 3933,
      "af": 3934,
      "zul": 3935,
      "Ġresul": 3936,
      "Ġdelante": 3937,
      "Ġdespi": 3938,
      "Ġdesper": 3939,
      "ĠPer": 3940,
      "Ġrecord": 3941,
      "Ġtener": 3942,
      "Ġefectivo": 3943,
      "Ġpalpaba": 3944,
      "Ġmejorar": 3945,
      "ĠPSV": 3946,
      "ĠdesnudÃ³": 3947,
      "ĠÃģlvaro": 3948,
      "Ġsatis": 3949,
      "Ġclima": 3950,
      "55": 3951,
      "ago": 3952,
      "ĠÃ¡n": 3953,
      "Ġmur": 3954,
      "trada": 3955,
      "ĠSel": 3956,
      "ĠBel": 3957,
      "vio": 3958,
      "ĠJor": 3959,
      "ientes": 3960,
      "Ġexpectativas": 3961,
      "Ġerrores": 3962,
      "Ġregalaron": 3963,
      "ĠCaen": 3964,
      "ĠSwansea": 3965,
      "Ġtrabajo": 3966,
      "Ġescuad": 3967,
      "ingamp": 3968,
      "ĠcapÃŃtulo": 3969,
      "Ġelaborada": 3970,
      "stan": 3971,
      "tti": 3972,
      "tÃ©": 3973,
      "Ġgen": 3974,
      "ĠBol": 3975,
      "ĠEindhovense": 3976,
      "ĠLeeds": 3977,
      "Ġotra": 3978,
      "ĠhistÃ³r": 3979,
      "dorf": 3980,
      "Ġsalir": 3981,
      "Ġhabilidad": 3982,
      "ĠKarim": 3983,
      "Ġrecompensa": 3984,
      "bilidades": 3985,
      "Ġdesbord": 3986,
      "ĠemblemÃ¡tico": 3987,
      "Ġamedren": 3988,
      "onte": 3989,
      "under": 3990,
      "Ã¡rez": 3991,
      "andowski": 3992,
      "Ġvieron": 3993,
      "pid": 3994,
      "ĠRobin": 3995,
      "Ġtemb": 3996,
      "Ġsiete": 3997,
      "Ġfirmeza": 3998,
      "ĠBreda": 3999,
      "ĠGuingamp": 4000,
      "Ġmanteniendo": 4001,
      "ĠBruno": 4002,
      "ĠLewandowski": 4003,
      "ĠcontinÃºa": 4004,
      "Ġmirada": 4005,
      "ĠSalzburg": 4006,
      "underland": 4007,
      "78": 4008,
      "Buen": 4009,
      "ato": 4010,
      "uÃ±a": 4011,
      "Ġlienzo": 4012,
      "are": 4013,
      "Ġgui": 4014,
      "ĠLeon": 4015,
      "Ġtarea": 4016,
      "Ġparece": 4017,
      "ugur": 4018,
      "ĠNottingham": 4019,
      "ĠCoruÃ±a": 4020,
      "Ġsusurro": 4021,
      "Feyenoord": 4022,
      "ĠLou": 4023,
      "ĠKui": 4024,
      "ĠKing": 4025,
      "ĠMax": 4026,
      "Ġros": 4027,
      "Ġdibu": 4028,
      "ĠRodri": 4029,
      "Ġ1913": 4030,
      "Ġrivales": 4031,
      "ĠalemÃ¡n": 4032,
      "Ġvalioso": 4033,
      "Ġmanejar": 4034,
      "Ġprofundi": 4035,
      "')": 4036,
      "ex": 4037,
      "ĠLes": 4038,
      "rentford": 4039,
      "Ġtel": 4040,
      "ĠpoesÃŃa": 4041,
      "Ġcelebrado": 4042,
      "Deportivo": 4043,
      "ĠNuevo": 4044,
      "Ġlabor": 4045,
      "Ġgris": 4046,
      "tual": 4047,
      "ĠHannover": 4048,
      "Ġcumpli": 4049,
      "Ġllevaron": 4050,
      "quÃŃ": 4051,
      "eiro": 4052,
      "Ġcomplicada": 4053,
      "Ġpeligro": 4054,
      "Ġalentar": 4055,
      "ĠUEFA": 4056,
      "Ras": 4057,
      "lÃ©s": 4058,
      "ĠCro": 4059,
      "Ġfru": 4060,
      "Ġesca": 4061,
      "ĠFi": 4062,
      "Ġgiros": 4063,
      "bia": 4064,
      "bilidad": 4065,
      "ock": 4066,
      "Ġreun": 4067,
      "Ġrela": 4068,
      "eck": 4069,
      "ĠVin": 4070,
      "ĠVÃ©": 4071,
      "ĠElche": 4072,
      "Ġdefensivas": 4073,
      "vento": 4074,
      "ĠcarÃ¡c": 4075,
      "incente": 4076,
      "Ġcolectivo": 4077,
      "Ġdesarrollo": 4078,
      "Ġrendirse": 4079,
      "Ġcaprichoso": 4080,
      "Ġconvincente": 4081,
      "Buenas": 4082,
      "RasenBallsport": 4083,
      "ĠcarÃ¡cter": 4084,
      "31": 4085,
      "aciones": 4086,
      "jan": 4087,
      "ngel": 4088,
      "rente": 4089,
      "Ġron": 4090,
      "Ġolvi": 4091,
      "Ġdeporte": 4092,
      "aro": 4093,
      "ĠAj": 4094,
      "ĠBala": 4095,
      "Ġdesesper": 4096,
      "Ġina": 4097,
      "Ġbo": 4098,
      "ĠJim": 4099,
      "ĠKerk": 4100,
      "ĠPaolo": 4101,
      "Ġaparecer": 4102,
      "Park": 4103,
      "ĠAlmerÃŃa": 4104,
      "decible": 4105,
      "Crystal": 4106,
      "fford": 4107,
      "udo": 4108,
      "Ġecos": 4109,
      "Ġcl": 4110,
      "esca": 4111,
      "Ġconfor": 4112,
      "ĠestÃ¡": 4113,
      "ĠFK": 4114,
      "ÃŃdos": 4115,
      "omo": 4116,
      "Ġhora": 4117,
      "ĠGabri": 4118,
      "Ġbra": 4119,
      "ĠMak": 4120,
      "Ġdigna": 4121,
      "ĠcompÃ¡s": 4122,
      "Ġavanzar": 4123,
      "ĠGirona": 4124,
      "Ġcambiar": 4125,
      "ĠâĢľ": 4126,
      "Ġinaugur": 4127,
      "Tor": 4128,
      "via": 4129,
      "Ġcir": 4130,
      "icado": 4131,
      "Ġconec": 4132,
      "ĠAthle": 4133,
      "ĠMich": 4134,
      "stadt": 4135,
      "ĠPel": 4136,
      "ĠParc": 4137,
      "godi": 4138,
      "tonio": 4139,
      "Ġluz": 4140,
      "âĢĿ": 4141,
      "Ġevidente": 4142,
      "ĠSuÃ¡rez": 4143,
      "eira": 4144,
      "ĠÃģngel": 4145,
      "Ġmaestra": 4146,
      "ĠTrafford": 4147,
      "Ġestructura": 4148,
      "Ġrecordatorio": 4149,
      "ĠBentegodi": 4150,
      "ĠAthletik": 4151,
      "huis": 4152,
      "iv": 4153,
      "Ġu": 4154,
      "Ġdec": 4155,
      "orra": 4156,
      "lumb": 4157,
      "ĠBan": 4158,
      "ĠBran": 4159,
      "oco": 4160,
      "ĠEra": 4161,
      "Ġnada": 4162,
      "uij": 4163,
      "ĠGen": 4164,
      "Ġrom": 4165,
      "had": 4166,
      "bert": 4167,
      "ĠniÃ±o": 4168,
      "Unione": 4169,
      "ĠCraig": 4170,
      "Ġprofundidad": 4171,
      "idos": 4172,
      "ny": 4173,
      "pÃ³": 4174,
      "tta": 4175,
      "inho": 4176,
      "tij": 4177,
      "ĠCan": 4178,
      "Ġflor": 4179,
      "ĠRK": 4180,
      "ĠGÃ¶": 4181,
      "ĠVel": 4182,
      "ĠHeiden": 4183,
      "llos": 4184,
      "Ġdiez": 4185,
      "Ġmomen": 4186,
      "ques": 4187,
      "ĠMik": 4188,
      "ĠMike": 4189,
      "Ġimportante": 4190,
      "Ġentrelaz": 4191,
      "Ġatrajo": 4192,
      "Ġdecepcion": 4193,
      "Ġreflexion": 4194,
      "ĠHeidenheim": 4195,
      "dro": 4196,
      "ivo": 4197,
      "vn": 4198,
      "antonio": 4199,
      "Ġenfo": 4200,
      "ald": 4201,
      "ĠDeca": 4202,
      "ĠPra": 4203,
      "ĠKlub": 4204,
      "Ġargen": 4205,
      "uroy": 4206,
      "ĠFranchi": 4207,
      "ĠDani": 4208,
      "ĠMarcantonio": 4209,
      "ĠiluminÃ³": 4210,
      "Ġnivel": 4211,
      "mpeÃ±o": 4212,
      "ĠdesempeÃ±o": 4213,
      "ĠCristiano": 4214,
      "Mauroy": 4215,
      "ĠIbra": 4216,
      "Ġbrind": 4217,
      "Ġamedrentar": 4218,
      "ĠBalaÃŃdos": 4219,
      "ĠmomentÃ¡": 4220,
      "ĠDecathlon": 4221,
      "ejo": 4222,
      "ye": 4223,
      "anos": 4224,
      "Ġve": 4225,
      "Ġsub": 4226,
      "ĠRub": 4227,
      "ĠVe": 4228,
      "ĠNou": 4229,
      "Ġtoda": 4230,
      "ĠYa": 4231,
      "ĠbalompiÃ©": 4232,
      "Ġconclu": 4233,
      "Ġgoleada": 4234,
      "ĠinglÃ©s": 4235,
      "ĠÃ©pica": 4236,
      "ĠLouis": 4237,
      "Torino": 4238,
      "76": 4239,
      "89": 4240,
      "cam": 4241,
      "hou": 4242,
      "ure": 4243,
      "depen": 4244,
      "ĠsueÃ±o": 4245,
      "Ġpa": 4246,
      "cis": 4247,
      "tidu": 4248,
      "Ġconfir": 4249,
      "lim": 4250,
      "ĠDos": 4251,
      "logo": 4252,
      "ionante": 4253,
      "ĠStadio": 4254,
      "Ġdesafi": 4255,
      "Ġencontra": 4256,
      "ĠrÃ¡pido": 4257,
      "Ġpropuesta": 4258,
      "Ġbuscaban": 4259,
      "Ġofensivas": 4260,
      "Ġhecho": 4261,
      "Ġzaga": 4262,
      "Ġenfoque": 4263,
      "Vaya": 4264,
      "uli": 4265,
      "art": 4266,
      "Ġenvi": 4267,
      "ice": 4268,
      "ĠLec": 4269,
      "lij": 4270,
      "iak": 4271,
      "Ġinf": 4272,
      "Ġincer": 4273,
      "ĠJan": 4274,
      "ticas": 4275,
      "Ġdesaj": 4276,
      "Ġsellaron": 4277,
      "Ġclaras": 4278,
      "Ġbalanza": 4279,
      "ombres": 4280,
      "Ġreaviv": 4281,
      "ĠMonza": 4282,
      "ĠtÃ¡cticos": 4283,
      "ĠEric": 4284,
      "Ġimpredecible": 4285,
      "ĠArtemio": 4286,
      "Ġpartidazo": 4287,
      "ĠLecce": 4288,
      "Ġincertidu": 4289,
      "mford": 4290,
      "ni": 4291,
      "ĠelÃ©c": 4292,
      "ĠSala": 4293,
      "Ġsumar": 4294,
      "ĠEdin": 4295,
      "usos": 4296,
      "Ġbrestois": 4297,
      "acca": 4298,
      "ĠWe": 4299,
      "ĠOp": 4300,
      "ĠMauri": 4301,
      "ĠIvan": 4302,
      "ĠReial": 4303,
      "Ġcompases": 4304,
      "ĠpasÃ³": 4305,
      "Ġcolores": 4306,
      "apel": 4307,
      "ment": 4308,
      "ĠSteven": 4309,
      "ĠLoren": 4310,
      "ĠAlexander": 4311,
      "Leicester": 4312,
      "Ġvalientes": 4313,
      "ĠSimon": 4314,
      "Ġmovimiento": 4315,
      "ĠalcanzÃ³": 4316,
      "Ġculminando": 4317,
      "ĠallÃŃ": 4318,
      "Ġronda": 4319,
      "ĠelÃ©ctr": 4320,
      "kh": 4321,
      "osi": 4322,
      "ĠAdam": 4323,
      "Ġvaya": 4324,
      "Ġges": 4325,
      "ĠMu": 4326,
      "ĠBridge": 4327,
      "ĠKal": 4328,
      "ĠStamford": 4329,
      "Ġvibraba": 4330,
      "Ġempatar": 4331,
      "ĠMarÃŃa": 4332,
      "Ġdescontar": 4333,
      "ĠRafa": 4334,
      "ĠWat": 4335,
      "ĠRamÃ³n": 4336,
      "inklij": 4337,
      "ĠRonaldo": 4338,
      "Ġciudad": 4339,
      "ĠlecciÃ³n": 4340,
      "Ġbrazos": 4341,
      "inklijke": 4342,
      "Ġcosas": 4343,
      "Ġpele": 4344,
      "ĠSie": 4345,
      "Ġvac": 4346,
      "Ġesencia": 4347,
      "ullo": 4348,
      "ooit": 4349,
      "ental": 4350,
      "Ġapoy": 4351,
      "ĠdesatenciÃ³n": 4352,
      "ney": 4353,
      "chem": 4354,
      "iguel": 4355,
      "geven": 4356,
      "ĠcambiÃ³": 4357,
      "Ġobli": 4358,
      "ĠWatford": 4359,
      "ĠsoÃ±ando": 4360,
      "ĠOlÃŃ": 4361,
      "ĠlÃŃneas": 4362,
      "ustria": 4363,
      "Ġdentro": 4364,
      "Ġsombras": 4365,
      "Ġargentino": 4366,
      "dependiente": 4367,
      "ĠOpgeven": 4368,
      "AC": 4369,
      "AS": 4370,
      "VV": 4371,
      "feld": 4372,
      "ida": 4373,
      "zi": 4374,
      "taban": 4375,
      "Ġpuer": 4376,
      "oriz": 4377,
      "Ġfan": 4378,
      "ĠAan": 4379,
      "Ġvari": 4380,
      "toine": 4381,
      "ĠMiguel": 4382,
      "ĠBrasile": 4383,
      "Ġalter": 4384,
      "ĠDÃ¼": 4385,
      "sivos": 4386,
      "cional": 4387,
      "amos": 4388,
      "estalla": 4389,
      "tuaciones": 4390,
      "Ġcuad": 4391,
      "ĠMari": 4392,
      "cott": 4393,
      "gena": 4394,
      "ĠPaw": 4395,
      "Ġdesple": 4396,
      "Ġcontraata": 4397,
      "Sportverein": 4398,
      "ssel": 4399,
      "ĠPrins": 4400,
      "Ġentrela": 4401,
      "Ġpresionando": 4402,
      "ĠJunior": 4403,
      "Ġromper": 4404,
      "ĠDÃ¼ssel": 4405,
      "elu": 4406,
      "gles": 4407,
      "poli": 4408,
      "zc": 4409,
      "undo": 4410,
      "Ġfluy": 4411,
      "Ġrebo": 4412,
      "ĠDia": 4413,
      "bah": 4414,
      "derico": 4415,
      "Ġvertic": 4416,
      "ĠrecortÃ³": 4417,
      "Ġenfrentaba": 4418,
      "ĠcaracterÃŃs": 4419,
      "Ġimpresionante": 4420,
      "ĠDÃ¼sseldorf": 4421,
      "tol": 4422,
      "Ġluego": 4423,
      "ermo": 4424,
      "ĠClÃ©": 4425,
      "ĠCÃ¡diz": 4426,
      "ĠSar": 4427,
      "Ġfiel": 4428,
      "ĠMc": 4429,
      "ĠMestalla": 4430,
      "ĠDijon": 4431,
      "ĠPol": 4432,
      "Ġcombin": 4433,
      "ĠIm": 4434,
      "tone": 4435,
      "ĠFutebol": 4436,
      "ĠFederico": 4437,
      "Ġsole": 4438,
      "Ã®mes": 4439,
      "Ġestilo": 4440,
      "Ġestrella": 4441,
      "ĠCastro": 4442,
      "Ġsuyos": 4443,
      "Ġguardame": 4444,
      "ĠRKC": 4445,
      "Piz": 4446,
      "emos": 4447,
      "hil": 4448,
      "mir": 4449,
      "pin": 4450,
      "Ġazul": 4451,
      "Ġpr": 4452,
      "ĠSheffield": 4453,
      "ĠDj": 4454,
      "ĠPere": 4455,
      "Ġfuego": 4456,
      "vaciÃ³n": 4457,
      "ĠKÃ¸": 4458,
      "ĠAltij": 4459,
      "ĠAnfield": 4460,
      "ĠluchÃ³": 4461,
      "havn": 4462,
      "ĠArmando": 4463,
      "ĠserÃ¡": 4464,
      "ĠFrancis": 4465,
      "aku": 4466,
      "andre": 4467,
      "ĠOlivier": 4468,
      "Ġestablecer": 4469,
      "ĠDoorzet": 4470,
      "euw": 4471,
      "benhavn": 4472,
      "Ġjuega": 4473,
      "juÃ¡n": 4474,
      "ĠGabriel": 4475,
      "ĠSalah": 4476,
      "Ġcuadro": 4477,
      "Ġguardameta": 4478,
      "PizjuÃ¡n": 4479,
      "ĠKÃ¸benhavn": 4480,
      "ĠAltijd": 4481,
      "ĠDoorzetten": 4482,
      "48": 4483,
      "66": 4484,
      "UC": 4485,
      "gge": 4486,
      "ois": 4487,
      "sfield": 4488,
      "Ġemba": 4489,
      "trado": 4490,
      "ĠSol": 4491,
      "ĠSunderland": 4492,
      "ece": 4493,
      "Ġestaban": 4494,
      "Ġempe": 4495,
      "ĠAntoine": 4496,
      "Ġpropi": 4497,
      "Ġdefra": 4498,
      "Ġlevan": 4499,
      "Ġdosis": 4500,
      "ĠBayArena": 4501,
      "ijn": 4502,
      "Ġatac": 4503,
      "ĠvenÃŃa": 4504,
      "ĠBrugge": 4505,
      "ĠBryan": 4506,
      "Ġincertidumbre": 4507,
      "ĠAangena": 4508,
      "ĠClÃ©ment": 4509,
      "ĠAangenaam": 4510,
      "pann": 4511,
      "vann": 4512,
      "Ã¤": 4513,
      "anc": 4514,
      "Ġdeslumb": 4515,
      "rates": 4516,
      "tspann": 4517,
      "ĠDin": 4518,
      "teros": 4519,
      "Ġbrasile": 4520,
      "ĠVerma": 4521,
      "ĠTel": 4522,
      "lot": 4523,
      "ĠNut": 4524,
      "Ġintenciones": 4525,
      "Ġresistencia": 4526,
      "Ġesperaban": 4527,
      "Ġinicia": 4528,
      "llaba": 4529,
      "Ġjugadas": 4530,
      "ĠBoch": 4531,
      "Ġespacio": 4532,
      "ĠRaÃºl": 4533,
      "ĠRapid": 4534,
      "ĠexpectaciÃ³n": 4535,
      "ĠgenerÃ³": 4536,
      "buur": 4537,
      "Ġhabitual": 4538,
      "Ġfulgur": 4539,
      "ĠOntspann": 4540,
      "ĠEmirates": 4541,
      "Ġdefinir": 4542,
      "ĠclÃ¡s": 4543,
      "ĠVermaak": 4544,
      "ĠNuttig": 4545,
      "ĠOntspanning": 4546,
      "39": 4547,
      "fL": 4548,
      "ili": 4549,
      "Ä±": 4550,
      "ĠÂ¿": 4551,
      "ĠMen": 4552,
      "ĠMag": 4553,
      "ĠMir": 4554,
      "Ġsuma": 4555,
      "ĠBris": 4556,
      "oca": 4557,
      "ĠErik": 4558,
      "lod": 4559,
      "Ġocho": 4560,
      "Ġjugar": 4561,
      "berg": 4562,
      "Ġrefuer": 4563,
      "Ġdispuesto": 4564,
      "ĠHamburger": 4565,
      "irao": 4566,
      "Ġbandas": 4567,
      "ĠCambuur": 4568,
      "Ġsutileza": 4569,
      "Ġorganizada": 4570,
      "ĠretumbÃ³": 4571,
      "ĠBrasileirao": 4572,
      "SV": 4573,
      "sk": 4574,
      "we": 4575,
      "wer": 4576,
      "zados": 4577,
      "ĠSÃ©": 4578,
      "Ġgente": 4579,
      "Ã³nico": 4580,
      "ÃŃri": 4581,
      "Ġrevi": 4582,
      "Ġdando": 4583,
      "Ġbro": 4584,
      "Ġbrin": 4585,
      "ĠHav": 4586,
      "ĠIsa": 4587,
      "Ġpresencia": 4588,
      "Ġcerte": 4589,
      "rome": 4590,
      "Aston": 4591,
      "enerbah": 4592,
      "Ã§e": 4593,
      "ĠGraaf": 4594,
      "ĠJean": 4595,
      "Ġanticip": 4596,
      "Ġtemblar": 4597,
      "enerbahÃ§e": 4598,
      "Bologna": 4599,
      "Ġaten": 4600,
      "eran": 4601,
      "Ġcero": 4602,
      "cic": 4603,
      "isos": 4604,
      "Ã©tico": 4605,
      "Ġneu": 4606,
      "igh": 4607,
      "ack": 4608,
      "mers": 4609,
      "Ġsituaciones": 4610,
      "ĠLudo": 4611,
      "inces": 4612,
      "Ġpalpi": 4613,
      "ĠBraga": 4614,
      "ĠseÃ±al": 4615,
      "Ġreverber": 4616,
      "ĠofreciÃ³": 4617,
      "ĠPrinces": 4618,
      "Ġcompromisos": 4619,
      "ĠrespondiÃ³": 4620,
      "Ġadversi": 4621,
      "Ġmediocampista": 4622,
      "Ġanfitriones": 4623,
      "ĠTroyes": 4624,
      "ĠVÃ©lod": 4625,
      "ĠPelle": 4626,
      "Ġrefuerza": 4627,
      "ĠVÃ©lodrome": 4628,
      "49": 4629,
      "II": 4630,
      "aÃ±": 4631,
      "gui": 4632,
      "grad": 4633,
      "tara": 4634,
      "trali": 4635,
      "ĠCos": 4636,
      "ĠSI": 4637,
      "ĠSven": 4638,
      "ĠAri": 4639,
      "ĠAren": 4640,
      "rig": 4641,
      "ÃŃtico": 4642,
      "Ġdesv": 4643,
      "Ġhombres": 4644,
      "Ġindi": 4645,
      "ĠLaho": 4646,
      "Ġanim": 4647,
      "Ġir": 4648,
      "ĠIgles": 4649,
      "Ġprepar": 4650,
      "ĠCiro": 4651,
      "Ġrecuer": 4652,
      "Ġtestigos": 4653,
      "ĠPaulo": 4654,
      "ezmann": 4655,
      "Ġfrus": 4656,
      "ĠKonstan": 4657,
      "ĠSamuel": 4658,
      "Hertha": 4659,
      "ĠGriezmann": 4660,
      "Ġblanco": 4661,
      "Ã«l": 4662,
      "ĠStoke": 4663,
      "ĠRodrigo": 4664,
      "Ġdesajuste": 4665,
      "ĠLorenzo": 4666,
      "ĠOlÃŃmpico": 4667,
      "Ġcontraataque": 4668,
      "ĠBochum": 4669,
      "Ġneutrali": 4670,
      "ĠLahoz": 4671,
      "ĠIglesias": 4672,
      "ĠKonstantin": 4673,
      "'s": 4674,
      "GOL": 4675,
      "Vi": 4676,
      "born": 4677,
      "ffer": 4678,
      "telli": 4679,
      "ĠLam": 4680,
      "usieron": 4681,
      "ĠGr": 4682,
      "ĠespÃŃri": 4683,
      "accio": 4684,
      "Ġabs": 4685,
      "ĠAless": 4686,
      "ĠFCO": 4687,
      "Ġimpul": 4688,
      "ĠfirmÃ³": 4689,
      "ĠavanzÃ³": 4690,
      "mond": 4691,
      "Ġcabo": 4692,
      "ĠWilli": 4693,
      "ĠDavide": 4694,
      "ĠHarry": 4695,
      "NAL": 4696,
      "Ġcontragolpe": 4697,
      "ĠresultÃ³": 4698,
      "Ġfulgurante": 4699,
      "ĠclÃ¡sico": 4700,
      "ĠespÃŃritu": 4701,
      "DU": 4702,
      "GNAL": 4703,
      "SD": 4704,
      "up": 4705,
      "ĠX": 4706,
      "Ġton": 4707,
      "del": 4708,
      "Ġlla": 4709,
      "oral": 4710,
      "ĠSon": 4711,
      "ĠAmbos": 4712,
      "ĠMel": 4713,
      "bile": 4714,
      "ĠPi": 4715,
      "ĠPARK": 4716,
      "ĠJord": 4717,
      "ĠLeeuw": 4718,
      "ĠNik": 4719,
      "Ġasis": 4720,
      "ĠIDU": 4721,
      "ĠChar": 4722,
      "Ġsob": 4723,
      "ĠMillot": 4724,
      "Ġdram": 4725,
      "vela": 4726,
      "ĠdesbordÃ³": 4727,
      "ĠAdriÃ¡n": 4728,
      "ĠMateu": 4729,
      "Ġtradujo": 4730,
      "Ġrelato": 4731,
      "Ġreflexionar": 4732,
      "Ġfluyera": 4733,
      "ĠempezÃ³": 4734,
      "ĠbrasileÃ±o": 4735,
      "ĠSIGNAL": 4736,
      "Ġdesventaja": 4737,
      "ĠIDUNA": 4738,
      "85": 4739,
      "Ven": 4740,
      "mel": 4741,
      "win": 4742,
      "Ġtur": 4743,
      "ĠMer": 4744,
      "ĠMba": 4745,
      "Ġalgo": 4746,
      "ĠVan": 4747,
      "range": 4748,
      "Ġvivir": 4749,
      "age": 4750,
      "Ġintentando": 4751,
      "Ġintentaron": 4752,
      "ĠOrange": 4753,
      "ĠsintiÃ³": 4754,
      "ĠdifÃŃ": 4755,
      "derborn": 4756,
      "ĠPaderborn": 4757,
      "ĠMiran": 4758,
      "Ġencargado": 4759,
      "Ġtempranero": 4760,
      "ĠCruij": 4761,
      "ĠpodÃŃa": 4762,
      "Ġcaracteriza": 4763,
      "ĠHuesca": 4764,
      "Ġperforar": 4765,
      "Ġceleste": 4766,
      "Ġeterno": 4767,
      "Fortuna": 4768,
      "ĠDinamo": 4769,
      "ĠArenA": 4770,
      "ĠCruijff": 4771,
      "47": 4772,
      "enci": 4773,
      "Ġafer": 4774,
      "Ġpiel": 4775,
      "ĠFal": 4776,
      "ÃŃc": 4777,
      "ĠpareciÃ³": 4778,
      "ĠBou": 4779,
      "ĠPas": 4780,
      "urst": 4781,
      "mobile": 4782,
      "ĠKla": 4783,
      "aye": 4784,
      "Ġfinalmente": 4785,
      "ĠRoaz": 4786,
      "ĠiniciÃ³": 4787,
      "Ġcoloso": 4788,
      "Ġhat": 4789,
      "izado": 4790,
      "Ġcarga": 4791,
      "ĠrecuperaciÃ³n": 4792,
      "Ġeuropea": 4793,
      "Heracles": 4794,
      "Ġcomenzaron": 4795,
      "Ġtranquila": 4796,
      "ĠdevolviÃ³": 4797,
      "Montpellier": 4798,
      "Ġolfa": 4799,
      "ĠAjaccio": 4800,
      "ĠImmobile": 4801,
      "Vitesse": 4802,
      "ĠRoazhon": 4803,
      "ah": 4804,
      "hurst": 4805,
      "lis": 4806,
      "Ġpapel": 4807,
      "Ġmal": 4808,
      "tif": 4809,
      "diff": 4810,
      "Ġvul": 4811,
      "chon": 4812,
      "Ġdespe": 4813,
      "ĠRan": 4814,
      "ĠRay": 4815,
      "Ġinqui": 4816,
      "ĠGim": 4817,
      "torias": 4818,
      "Ġapo": 4819,
      "Ġim": 4820,
      "Ġcomplem": 4821,
      "Ġcolchon": 4822,
      "ĠSportklub": 4823,
      "Ġtorrente": 4824,
      "ĠfrÃŃo": 4825,
      "Stadion": 4826,
      "Sportclub": 4827,
      "Ġgoleadora": 4828,
      "Ġcapitalizando": 4829,
      "ĠKoninklijke": 4830,
      "Ġofrecieron": 4831,
      "Ġimponer": 4832,
      "ĠTurpin": 4833,
      "ĠSelhurst": 4834,
      "Ġutili": 4835,
      "ĠdefraudÃ³": 4836,
      "Finalmente": 4837,
      "aje": 4838,
      "my": 4839,
      "Ġqu": 4840,
      "unes": 4841,
      "Ġestar": 4842,
      "Ġparis": 4843,
      "Ġhombre": 4844,
      "mberg": 4845,
      "ĠTurn": 4846,
      "ticamente": 4847,
      "Ã¼k": 4848,
      "Ġpasiones": 4849,
      "Ġarri": 4850,
      "erner": 4851,
      "Ġlejos": 4852,
      "ĠintensificÃ³": 4853,
      "ĠFranÃ§": 4854,
      "Ġgritos": 4855,
      "ĠdisputÃ³": 4856,
      "Ġequilibrio": 4857,
      "izaciÃ³n": 4858,
      "estiÃ³n": 4859,
      "Ġlucharon": 4860,
      "ĠCerÃ¡mica": 4861,
      "ĠVolks": 4862,
      "ĠfÃ¡cilmente": 4863,
      "ĠGiovann": 4864,
      "ĠFranÃ§ois": 4865,
      "ĠGiovanni": 4866,
      "dra": 4867,
      "ema": 4868,
      "gro": 4869,
      "itos": 4870,
      "uy": 4871,
      "Ġpen": 4872,
      "ciado": 4873,
      "Ġsector": 4874,
      "ĠBiele": 4875,
      "ĠDa": 4876,
      "amiento": 4877,
      "ĠbÃ¡": 4878,
      "Ġotros": 4879,
      "Ġdific": 4880,
      "traje": 4881,
      "ĠSerge": 4882,
      "Ġdominando": 4883,
      "Ġpoema": 4884,
      "ĠÃºltima": 4885,
      "Ġmuestra": 4886,
      "Ġbrillar": 4887,
      "ĠbrillÃ³": 4888,
      "ĠBeau": 4889,
      "ĠVallecas": 4890,
      "Ġsurc": 4891,
      "ĠFernando": 4892,
      "ĠNicolas": 4893,
      "Ġabierta": 4894,
      "ĠdifÃŃcil": 4895,
      "ĠBielefeld": 4896,
      "Ġdificul": 4897,
      "ji": 4898,
      "rera": 4899,
      "wood": 4900,
      "yad": 4901,
      "tex": 4902,
      "Ġfeste": 4903,
      "liano": 4904,
      "Ã³nimo": 4905,
      "ĠMarcel": 4906,
      "Ã©nez": 4907,
      "Ġrepar": 4908,
      "ĠDÃŃa": 4909,
      "Ġdan": 4910,
      "iago": 4911,
      "vil": 4912,
      "ĠKen": 4913,
      "Ġmezc": 4914,
      "Ġexper": 4915,
      "kelie": 4916,
      "ĠVik": 4917,
      "Ġcelebrar": 4918,
      "ĠMontero": 4919,
      "mont": 4920,
      "Ġverdadera": 4921,
      "ĠBastian": 4922,
      "Ġsonrisa": 4923,
      "Ġajus": 4924,
      "Ġposiciona": 4925,
      "Ġfuturos": 4926,
      "Ġzona": 4927,
      "Ġdefensor": 4928,
      "ppÃ©": 4929,
      "ĠJorge": 4930,
      "ĠMakkelie": 4931,
      "ĠIbrahi": 4932,
      "ĠPawson": 4933,
      "esc": 4934,
      "ance": 4935,
      "ciaron": 4936,
      "ĠBurg": 4937,
      "ĠBrentford": 4938,
      "ĠPri": 4939,
      "ĠPhil": 4940,
      "lada": 4941,
      "ussa": 4942,
      "ĠTimo": 4943,
      "ĠNure": 4944,
      "minia": 4945,
      "Ġastu": 4946,
      "caba": 4947,
      "etxe": 4948,
      "Ġcau": 4949,
      "ĠponÃŃa": 4950,
      "ĠBenito": 4951,
      "ĠJosh": 4952,
      "Ġequilibrar": 4953,
      "ĠestableciÃ³": 4954,
      "ĠWolfs": 4955,
      "ĠStÃ©": 4956,
      "ĠGraz": 4957,
      "Ġpropio": 4958,
      "bastien": 4959,
      "ĠCerro": 4960,
      "Ġdefensores": 4961,
      "Ġgrandeza": 4962,
      "Ġdesorgan": 4963,
      "ĠvacÃŃas": 4964,
      "Ġrebote": 4965,
      "ĠSÃ©bastien": 4966,
      "ĠMbappÃ©": 4967,
      "ĠDÃŃaz": 4968,
      "ĠNuremberg": 4969,
      "100": 4970,
      "Rayo": 4971,
      "kert": 4972,
      "nas": 4973,
      "ric": 4974,
      "inone": 4975,
      "ĠSlav": 4976,
      "ĠAper": 4977,
      "Ġvestu": 4978,
      "Ġestuvi": 4979,
      "ladi": 4980,
      "mbas": 4981,
      "zaban": 4982,
      "ĠKamp": 4983,
      "Ġafianza": 4984,
      "Ġacomo": 4985,
      "Ġtej": 4986,
      "Ġdomingo": 4987,
      "ĠdescontÃ³": 4988,
      "ĠJulian": 4989,
      "Ġnueva": 4990,
      "ĠMarcus": 4991,
      "ĠHart": 4992,
      "rosinone": 4993,
      "ĠAlexandre": 4994,
      "lermont": 4995,
      "ĠPower": 4996,
      "Ġcongregaron": 4997,
      "Ġarbitraje": 4998,
      "horst": 4999,
      "Ġfrutos": 5000,
      "Ġbrindaron": 5001,
      "Ġgestion": 5002,
      "ĠHavre": 5003,
      "ĠApertura": 5004,
      "SK": 5005,
      "em": 5006,
      "her": 5007,
      "jas": 5008,
      "mstadt": 5009,
      "tÃŃn": 5010,
      "ĠScott": 5011,
      "ĠFoo": 5012,
      "lia": 5013,
      "lum": 5014,
      "ĠBri": 5015,
      "Ã©vin": 5016,
      "Ġher": 5017,
      "ĠDall": 5018,
      "Ġotor": 5019,
      "tiempos": 5020,
      "Ġirse": 5021,
      "ĠAlc": 5022,
      "Ġ1846": 5023,
      "Reial": 5024,
      "Ġencendiendo": 5025,
      "ĠresonarÃ¡": 5026,
      "Ġcontratiempos": 5027,
      "Ġcruzados": 5028,
      "ĠZwayer": 5029,
      "Ġclase": 5030,
      "ĠDarmstadt": 5031,
      "ĠSimone": 5032,
      "Ġllegadas": 5033,
      "Ġcomenzado": 5034,
      "Ġtono": 5035,
      "Ġsobres": 5036,
      "Ġolfato": 5037,
      "ĠFoot": 5038,
      "Brighton": 5039,
      "Everton": 5040,
      "Getafe": 5041,
      "Wol": 5042,
      "ker": 5043,
      "Ġeleg": 5044,
      "ĠSpo": 5045,
      "ĠAu": 5046,
      "Ġdestre": 5047,
      "ĠPav": 5048,
      "Ġbol": 5049,
      "Ġdejaba": 5050,
      "ĠTras": 5051,
      "ĠanÃ³nimo": 5052,
      "ĠSerdar": 5053,
      "ĠYed": 5054,
      "Ġcelebrando": 5055,
      "ĠIndependiente": 5056,
      "Ġagres": 5057,
      "Ġcomplicado": 5058,
      "Ġintercam": 5059,
      "Ġdestellos": 5060,
      "Ġmonta": 5061,
      "ĠColise": 5062,
      "Ġhubi": 5063,
      "Ġfinalizado": 5064,
      "Ġindis": 5065,
      "fried": 5066,
      "oluto": 5067,
      "ĠStefan": 5068,
      "ĠJavier": 5069,
      "Ġabsoluto": 5070,
      "ĠAlessandro": 5071,
      "tify": 5072,
      "Ġcomplemento": 5073,
      "ĠSpotify": 5074,
      "600": 5075,
      "77": 5076,
      "800": 5077,
      "hel": 5078,
      "vÃŃa": 5079,
      "erto": 5080,
      "ertura": 5081,
      "Ġpel": 5082,
      "tri": 5083,
      "diciÃ³n": 5084,
      "ĠAustria": 5085,
      "ĠKa": 5086,
      "Ġapertura": 5087,
      "joire": 5088,
      "ĠsentÃŃa": 5089,
      "ĠRomain": 5090,
      "ĠMoussa": 5091,
      "Ġescal": 5092,
      "ĠTorneo": 5093,
      "Ġregres": 5094,
      "Ġsentenciando": 5095,
      "ĠWilfried": 5096,
      "Ġcruciales": 5097,
      "ĠarrancÃ³": 5098,
      "ĠMatth": 5099,
      "Ã´me": 5100,
      "ĠejecuciÃ³n": 5101,
      "Ġimponente": 5102,
      "ĠJÃ©rÃ´me": 5103,
      "ĠtÃ³nica": 5104,
      "Ġmerecida": 5105,
      "exiÃ³n": 5106,
      "Ġconcluido": 5107,
      "Ġsoleada": 5108,
      "Venlo": 5109,
      "Ġinquie": 5110,
      "ĠBeaujoire": 5111,
      "86": 5112,
      "Goo": 5113,
      "well": 5114,
      "inos": 5115,
      "orÃŃa": 5116,
      "tentes": 5117,
      "STAC": 5118,
      "ĠDou": 5119,
      "row": 5120,
      "ĠPla": 5121,
      "sito": 5122,
      "loque": 5123,
      "Ġestalli": 5124,
      "ĠMaz": 5125,
      "Ã¡ndo": 5126,
      "ĠMarad": 5127,
      "ĠcareciÃ³": 5128,
      "ponerse": 5129,
      "ĠsÃ³lo": 5130,
      "Ġmarcha": 5131,
      "ĠPalermo": 5132,
      "ĠCeltic": 5133,
      "Ã©rico": 5134,
      "ĠBastien": 5135,
      "Ġincon": 5136,
      "Ġsacar": 5137,
      "Ġfuturo": 5138,
      "ĠfrenÃ©tico": 5139,
      "ĠNorwich": 5140,
      "Ġobligado": 5141,
      "Ġdestreza": 5142,
      "ĠYedder": 5143,
      "ĠColiseum": 5144,
      "Ġindiscu": 5145,
      "ĠpelÃŃc": 5146,
      "ĠMaradona": 5147,
      "Cagliari": 5148,
      "ets": 5149,
      "gn": 5150,
      "jado": 5151,
      "len": 5152,
      "Ġdebilidades": 5153,
      "Ġambas": 5154,
      "unn": 5155,
      "Ġpol": 5156,
      "Ġentus": 5157,
      "orro": 5158,
      "ĠmÃŃtico": 5159,
      "tible": 5160,
      "ĠSV": 5161,
      "daba": 5162,
      "Ġfres": 5163,
      "ĠLane": 5164,
      "ĠEti": 5165,
      "adores": 5166,
      "raban": 5167,
      "Ã©tr": 5168,
      "eler": 5169,
      "vian": 5170,
      "Ġnotar": 5171,
      "Ġdejados": 5172,
      "Ġiden": 5173,
      "Ġrusa": 5174,
      "Ġigualando": 5175,
      "Ġserie": 5176,
      "ĠBorja": 5177,
      "Ġfirmando": 5178,
      "ĠdemostraciÃ³n": 5179,
      "Ġtraemos": 5180,
      "Ġmaj": 5181,
      "Ġcielos": 5182,
      "Ġdemostraron": 5183,
      "Ġcambio": 5184,
      "ĠComo": 5185,
      "ĠVicente": 5186,
      "ĠKylian": 5187,
      "ĠÃīvian": 5188,
      "ĠinaugurÃ³": 5189,
      "ĠMikel": 5190,
      "ĠRubÃ©n": 5191,
      "Ġbroche": 5192,
      "ĠfrustraciÃ³n": 5193,
      "ĠWilliam": 5194,
      "etxea": 5195,
      "ĠmontaÃ±a": 5196,
      "Ġestallido": 5197,
      "Ġidenti": 5198,
      "Lev": 5199,
      "br": 5200,
      "Ġeje": 5201,
      "Ã¡ticos": 5202,
      "Ġfa": 5203,
      "ĠAra": 5204,
      "ĠBak": 5205,
      "Ġhon": 5206,
      "ĠDre": 5207,
      "ecÃŃa": 5208,
      "usse": 5209,
      "Ġespe": 5210,
      "ĠKra": 5211,
      "Ġperdido": 5212,
      "Ġteatro": 5213,
      "anzando": 5214,
      "ĠmarchÃ³": 5215,
      "ĠreaccionÃ³": 5216,
      "roll": 5217,
      "ĠMoor": 5218,
      "kov": 5219,
      "ĠGonzalo": 5220,
      "Ġejer": 5221,
      "issam": 5222,
      "ĠRiyad": 5223,
      "Ġmilim": 5224,
      "Ġsuyas": 5225,
      "Wolverhampton": 5226,
      "Levante": 5227,
      "ĠmilimÃ©tr": 5228,
      "Tras": 5229,
      "Verona": 5230,
      "ĠSM": 5231,
      "lio": 5232,
      "ĠBro": 5233,
      "Ġdesli": 5234,
      "Ġencamin": 5235,
      "vidu": 5236,
      "illa": 5237,
      "ĠVita": 5238,
      "ĠJones": 5239,
      "ĠKr": 5240,
      "ientos": 5241,
      "Ġimb": 5242,
      "Ġextre": 5243,
      "Ġrecinto": 5244,
      "ruz": 5245,
      "ĠLuka": 5246,
      "ĠAtkin": 5247,
      "ĠpresenciÃ³": 5248,
      "Ġpocas": 5249,
      "ĠNicola": 5250,
      "ĠChristo": 5251,
      "zema": 5252,
      "Toulouse": 5253,
      "ĠVictor": 5254,
      "Ġpreguntas": 5255,
      "ĠGreen": 5256,
      "ĠClau": 5257,
      "ĠFabio": 5258,
      "Ġperfecta": 5259,
      "ĠJÃ©rÃ©mie": 5260,
      "Ġaplausos": 5261,
      "Ġadaptarse": 5262,
      "Ġcirc": 5263,
      "ĠelÃ©ctrico": 5264,
      "Ġatenta": 5265,
      "Ġindividu": 5266,
      "Ġintercambio": 5267,
      "Ġescalar": 5268,
      "ĠpelÃŃcula": 5269,
      "ĠEtihad": 5270,
      "Ġmajestu": 5271,
      "ĠAtkinson": 5272,
      "Gran": 5273,
      "HP": 5274,
      "PA": 5275,
      "Udinese": 5276,
      "fÃ©": 5277,
      "gy": 5278,
      "gal": 5279,
      "pre": 5280,
      "Ġaque": 5281,
      "doba": 5282,
      "ĠSti": 5283,
      "let": 5284,
      "ĠManz": 5285,
      "ĠMHP": 5286,
      "sey": 5287,
      "ĠJack": 5288,
      "ĠNÃ®mes": 5289,
      "ĠWissam": 5290,
      "Ġintensas": 5291,
      "ĠMad": 5292,
      "ĠMaxi": 5293,
      "thli": 5294,
      "Ġexcel": 5295,
      "ĠtÃ¡cticas": 5296,
      "ĠStur": 5297,
      "ĠRenato": 5298,
      "Ġmejores": 5299,
      "ĠcaracterizÃ³": 5300,
      "ĠmonÃ³": 5301,
      "ĠGuiller": 5302,
      "Ġestrellas": 5303,
      "Ġvivimos": 5304,
      "ĠGroup": 5305,
      "Ã³rdoba": 5306,
      "ĠMHPArena": 5307,
      "ĠGuillermo": 5308,
      "700": 5309,
      "Southampton": 5310,
      "cre": 5311,
      "pas": 5312,
      "aran": 5313,
      "ang": 5314,
      "Ġpla": 5315,
      "Ġmeren": 5316,
      "ĠCÃ©s": 5317,
      "ĠCou": 5318,
      "ĠCav": 5319,
      "ĠBj": 5320,
      "goetxea": 5321,
      "ĠGew": 5322,
      "ĠGrol": 5323,
      "ĠVeste": 5324,
      "ĠJak": 5325,
      "ĠLee": 5326,
      "ĠKane": 5327,
      "Ġespectac": 5328,
      "ĠZla": 5329,
      "Ġhistorias": 5330,
      "evic": 5331,
      "Ġcelebraron": 5332,
      "ĠBengoetxea": 5333,
      "Ġmuchos": 5334,
      "ĠesfÃ©rico": 5335,
      "Ġrecordado": 5336,
      "ĠMÃ¼ller": 5337,
      "ĠdestacÃ³": 5338,
      "Ġajustar": 5339,
      "Ġbelga": 5340,
      "ĠanticipÃ³": 5341,
      "ĠdramÃ¡tico": 5342,
      "ĠBurgos": 5343,
      "Ġimborra": 5344,
      "ĠGewiss": 5345,
      "ĠGrolsch": 5346,
      "Ġespectacular": 5347,
      "..": 5348,
      "MÃ¡laga": 5349,
      "Nijmegen": 5350,
      "mado": 5351,
      "nis": 5352,
      "pes": 5353,
      "yÃ¼k": 5354,
      "zÃ¼bÃ¼": 5355,
      "arra": 5356,
      "Ġpl": 5357,
      "Ġmundo": 5358,
      "icos": 5359,
      "Ã¡mico": 5360,
      "Ġgal": 5361,
      "ĠBla": 5362,
      "ĠRud": 5363,
      "ĠRCD": 5364,
      "ĠPl": 5365,
      "ecto": 5366,
      "Ġinca": 5367,
      "ĠVfL": 5368,
      "ĠKÃ©vin": 5369,
      "Ġrespiro": 5370,
      "Ġresumen": 5371,
      "Ġcateg": 5372,
      "ĠRob": 5373,
      "Ġ07": 5374,
      "ĠZor": 5375,
      "ĠparecÃŃan": 5376,
      "ĠPatrick": 5377,
      "ĠBenfica": 5378,
      "ĠDankert": 5379,
      "Ġpermite": 5380,
      "purs": 5381,
      "ĠÃ©l": 5382,
      "ĠDennis": 5383,
      "ĠAlexis": 5384,
      "ĠMoreno": 5385,
      "tÃ¡ndose": 5386,
      "ĠHugo": 5387,
      "Ġconvertir": 5388,
      "Ġrespiraba": 5389,
      "Ġfundam": 5390,
      "Ġsignifica": 5391,
      "ĠcumpliÃ³": 5392,
      "ĠGÃ¶zÃ¼bÃ¼": 5393,
      "khtar": 5394,
      "ĠSiebert": 5395,
      "ĠreverberÃ³": 5396,
      "Ġexcelente": 5397,
      "ĠmonÃ³logo": 5398,
      "ĠGÃ¶zÃ¼bÃ¼yÃ¼k": 5399,
      "\".": 5400,
      "Ara": 5401,
      "WK": 5402,
      "dal": 5403,
      "xtas": 5404,
      "Ġep": 5405,
      "Ġlap": 5406,
      "ore": 5407,
      "teo": 5408,
      "ĠLinz": 5409,
      "tropoli": 5410,
      "Ġnapoli": 5411,
      "ĠGor": 5412,
      "ĠGia": 5413,
      "Ġcomba": 5414,
      "ĠNooit": 5415,
      "ĠWWK": 5416,
      "ĠIÃ±": 5417,
      "Ġpresenta": 5418,
      "Ġlograr": 5419,
      "ĠDean": 5420,
      "Ġestelar": 5421,
      "Ġhabla": 5422,
      "Ġmago": 5423,
      "ĠMetropoli": 5424,
      "ĠmÃ¡xima": 5425,
      "ĠTorres": 5426,
      "Ġergu": 5427,
      "Ġprotagoniz": 5428,
      "ĠDeniz": 5429,
      "Ã§a": 5430,
      "Ġinterven": 5431,
      "Ġlimi": 5432,
      "ĠdinÃ¡mico": 5433,
      "Ġsacu": 5434,
      "Ġrepleto": 5435,
      "Ġinciden": 5436,
      "Ġalgunos": 5437,
      "ĠLukaku": 5438,
      "Ġrecordando": 5439,
      "Ġdesbordante": 5440,
      "ĠCrotone": 5441,
      "ĠmomentÃ¡ne": 5442,
      "Ġembates": 5443,
      "Ġarriba": 5444,
      "Ġsurcando": 5445,
      "Ġelegancia": 5446,
      "Ġhubiera": 5447,
      "PAL": 5448,
      "ĠCÃ©sar": 5449,
      "ĠCavani": 5450,
      "59": 5451,
      "bury": 5452,
      "ilu": 5453,
      "ima": 5454,
      "uz": 5455,
      "vÃ¡n": 5456,
      "erstadion": 5457,
      "Ġcos": 5458,
      "tein": 5459,
      "ole": 5460,
      "ĠAFA": 5461,
      "Ġesque": 5462,
      "Ġgladi": 5463,
      "Ġrean": 5464,
      "Ġreponerse": 5465,
      "viera": 5466,
      "moviÄĩ": 5467,
      "ĠJai": 5468,
      "pay": 5469,
      "ĠmandÃ³": 5470,
      "ĠIago": 5471,
      "Ġcamp": 5472,
      "Ġespectador": 5473,
      "cedor": 5474,
      "Ġconvirtiendo": 5475,
      "ĠPara": 5476,
      "Ġconsolidar": 5477,
      "ĠÃ©xtas": 5478,
      "ĠDuÅ¡": 5479,
      "Ġincre": 5480,
      "ĠGeo": 5481,
      "ĠFriend": 5482,
      "Ġmurm": 5483,
      "ĠcombinaciÃ³n": 5484,
      "ĠRangers": 5485,
      "ĠIbrahimoviÄĩ": 5486,
      "ĠVitali": 5487,
      "Ġprotagonizaron": 5488,
      "ĠAFAS": 5489,
      "ĠÃ©xtasis": 5490,
      "ĠDuÅ¡an": 5491,
      "365": 5492,
      "56": 5493,
      "jÃ³n": 5494,
      "vski": 5495,
      "Ãª": 5496,
      "Ġlatido": 5497,
      "tela": 5498,
      "ĠCaste": 5499,
      "ĠAli": 5500,
      "ĠLÃ©": 5501,
      "ĠBam": 5502,
      "ĠGuido": 5503,
      "ĠJens": 5504,
      "Ġsegura": 5505,
      "Ġvive": 5506,
      "ĠWerner": 5507,
      "dente": 5508,
      "Ġcoraje": 5509,
      "Ġleones": 5510,
      "ĠMilÃ¡n": 5511,
      "ĠFrances": 5512,
      "Ġevidencia": 5513,
      "ĠJoÃ£o": 5514,
      "Ġllena": 5515,
      "ĠPortu": 5516,
      "Ġorganizado": 5517,
      "ĠMason": 5518,
      "ĠacortÃ³": 5519,
      "Ã¶rn": 5520,
      "Ġvarias": 5521,
      "Ġadversidad": 5522,
      "Ġasistentes": 5523,
      "Ġmezcla": 5524,
      "Ġgestionar": 5525,
      "Ġhonor": 5526,
      "ĠmilimÃ©trica": 5527,
      "Ġindividual": 5528,
      "ĠBjÃ¶rn": 5529,
      "ĠcategorÃŃa": 5530,
      "Ġlapso": 5531,
      "ĠerguÃŃa": 5532,
      "\",": 5533,
      "200": 5534,
      "Genoa": 5535,
      "UD": 5536,
      "tÃŃan": 5537,
      "encias": 5538,
      "tamente": 5539,
      "Ġatre": 5540,
      "Ġcali": 5541,
      "ingo": 5542,
      "ĠCÃ³rdoba": 5543,
      "ĠconexiÃ³n": 5544,
      "Ġvuelo": 5545,
      "ĠFenerbahÃ§e": 5546,
      "ĠMin": 5547,
      "ome": 5548,
      "Ġdesilu": 5549,
      "Ġnub": 5550,
      "tsk": 5551,
      "ueno": 5552,
      "usti": 5553,
      "ĠGas": 5554,
      "Ġdefensas": 5555,
      "imen": 5556,
      "imos": 5557,
      "pers": 5558,
      "hein": 5559,
      "Ġrecta": 5560,
      "ĠArminia": 5561,
      "Ġterc": 5562,
      "Ġexplo": 5563,
      "Ġescena": 5564,
      "marÃŃn": 5565,
      "arios": 5566,
      "ĠVillamarÃŃn": 5567,
      "Ġllenaron": 5568,
      "ĠWilson": 5569,
      "Ġdemostrar": 5570,
      "Ġpueden": 5571,
      "Ġdestacando": 5572,
      "ĠJamie": 5573,
      "ĠRamos": 5574,
      "Ġllegaba": 5575,
      "adie": 5576,
      "ĠRicardo": 5577,
      "ĠShakhtar": 5578,
      "ĠGeorg": 5579,
      "ĠensueÃ±o": 5580,
      "ĠhistÃ³rico": 5581,
      "Ġguion": 5582,
      "ĠMelero": 5583,
      "ĠRCDE": 5584,
      "ĠMetropolitano": 5585,
      "Ġesquema": 5586,
      "37": 5587,
      "drÃŃa": 5588,
      "mall": 5589,
      "phan": 5590,
      "tto": 5591,
      "uf": 5592,
      "uesta": 5593,
      "Ġllu": 5594,
      "andes": 5595,
      "Ġentr": 5596,
      "asco": 5597,
      "ĠSpurs": 5598,
      "ĠLis": 5599,
      "Ġhoriz": 5600,
      "ĠRyan": 5601,
      "vill": 5602,
      "quiabi": 5603,
      "ĠHall": 5604,
      "ĠLaca": 5605,
      "ĠKh": 5606,
      "Ġempeza": 5607,
      "Ġcampe": 5608,
      "Ġbatir": 5609,
      "ardini": 5610,
      "aki": 5611,
      "Ġdelanteros": 5612,
      "ĠJoa": 5613,
      "Ġfeli": 5614,
      "ĠcrÃŃ": 5615,
      "ĠMatteo": 5616,
      "Ġcalma": 5617,
      "Ġmovilidad": 5618,
      "pezia": 5619,
      "zette": 5620,
      "Ġsutil": 5621,
      "Ġensorde": 5622,
      "ÄŁlu": 5623,
      "ĠreuniÃ³": 5624,
      "ĠVincen": 5625,
      "Ġboquiabi": 5626,
      "ĠRafael": 5627,
      "ĠfanÃ¡ticos": 5628,
      "ĠChristoph": 5629,
      "ĠManzano": 5630,
      "Ġimborrable": 5631,
      "Ġincapa": 5632,
      "ĠFrancesco": 5633,
      "ĠLacazette": 5634,
      "ios": 5635,
      "uda": 5636,
      "voc": 5637,
      "Ġ'": 5638,
      "Ġaviv": 5639,
      "ĠaquÃŃ": 5640,
      "ertos": 5641,
      "Ġprin": 5642,
      "Ġenerg": 5643,
      "cir": 5644,
      "Ġlatiendo": 5645,
      "Ġmir": 5646,
      "quet": 5647,
      "tim": 5648,
      "Ġquedaron": 5649,
      "icas": 5650,
      "ĠAsito": 5651,
      "ĠRichard": 5652,
      "ĠRhein": 5653,
      "ĠDyn": 5654,
      "Ġdejado": 5655,
      "mak": 5656,
      "agen": 5657,
      "Ġdirig": 5658,
      "Ġdesatar": 5659,
      "Ġvibrantes": 5660,
      "Ġsiente": 5661,
      "ĠRomelu": 5662,
      "ĠJochem": 5663,
      "ĠBoy": 5664,
      "ĠCardiff": 5665,
      "Ġmuchas": 5666,
      "Ġbuenas": 5667,
      "ĠresonarÃŃa": 5668,
      "Ġvenir": 5669,
      "ĠGrand": 5670,
      "cardo": 5671,
      "Ġejecutado": 5672,
      "Ġeficaz": 5673,
      "posi": 5674,
      "dizorro": 5675,
      "Ġvivido": 5676,
      "Ġempuje": 5677,
      "Angers": 5678,
      "Ġabrazo": 5679,
      "ĠWeserstadion": 5680,
      "ĠFilip": 5681,
      "ĠEdinson": 5682,
      "Ġiniciativa": 5683,
      "ĠMendizorro": 5684,
      "ĠCosta": 5685,
      "ĠJordan": 5686,
      "Ġejemp": 5687,
      "Granada": 5688,
      "ĠDynamo": 5689,
      "ĠMendizorroza": 5690,
      "ENA": 5691,
      "Go": 5692,
      "Gu": 5693,
      "RENA": 5694,
      "Zero": 5695,
      "bb": 5696,
      "cable": 5697,
      "hin": 5698,
      "izo": 5699,
      "ps": 5700,
      "ono": 5701,
      "ares": 5702,
      "arden": 5703,
      "Ġlado": 5704,
      "ĠCe": 5705,
      "ĠCen": 5706,
      "Ġsevill": 5707,
      "icar": 5708,
      "ĠSas": 5709,
      "ĠSou": 5710,
      "ĠAd": 5711,
      "ĠAaron": 5712,
      "ĠEA": 5713,
      "Ã©li": 5714,
      "ĠPiz": 5715,
      "lacable": 5716,
      "bame": 5717,
      "ĠGom": 5718,
      "ĠHull": 5719,
      "ĠNij": 5720,
      "Ġide": 5721,
      "saje": 5722,
      "Ġintentaba": 5723,
      "dersfield": 5724,
      "Ġimplacable": 5725,
      "Ġesperaba": 5726,
      "masi": 5727,
      "Ġrecibi": 5728,
      "onaba": 5729,
      "ĠPreZero": 5730,
      "Ġverso": 5731,
      "Ġdefinitiva": 5732,
      "Ġsaben": 5733,
      "ĠCotta": 5734,
      "ĠCuad": 5735,
      "Ġorg": 5736,
      "Ġsuperar": 5737,
      "Ġclamor": 5738,
      "uddersfield": 5739,
      "Ġpeque": 5740,
      "Ġdarle": 5741,
      "Ġmensaje": 5742,
      "gorets": 5743,
      "yang": 5744,
      "Ġcompromiso": 5745,
      "Ġsatisfe": 5746,
      "ĠKuipers": 5747,
      "Ġentrelazan": 5748,
      "ĠprÃ¡c": 5749,
      "ĠFrancisco": 5750,
      "Ġrevitali": 5751,
      "ĠLeeuwarden": 5752,
      "unners": 5753,
      "bameyang": 5754,
      "ĠCottage": 5755,
      "Cu": 5756,
      "Una": 5757,
      "hite": 5758,
      "nos": 5759,
      "nica": 5760,
      "Ġzur": 5761,
      "estos": 5762,
      "Ġenci": 5763,
      "tel": 5764,
      "didos": 5765,
      "ĠLind": 5766,
      "Ġsupi": 5767,
      "Ġnadie": 5768,
      "Ġrepi": 5769,
      "ĠDio": 5770,
      "ĠWou": 5771,
      "Ġresili": 5772,
      "ĠMauro": 5773,
      "lara": 5774,
      "Ġempez": 5775,
      "ĠAlfre": 5776,
      "Ġcompen": 5777,
      "Ġtriunf": 5778,
      "Ġconsum": 5779,
      "ĠSantos": 5780,
      "ĠValÃ¨": 5781,
      "Ġpudieron": 5782,
      "Ġencender": 5783,
      "Ġinstantes": 5784,
      "xito": 5785,
      "ĠmoviÃ³": 5786,
      "ĠWillian": 5787,
      "ĠmÃ¡gico": 5788,
      "ĠBragan": 5789,
      "Ġinesperados": 5790,
      "ffroy": 5791,
      "Ġreplantearse": 5792,
      "Ġofrecer": 5793,
      "Ġcambios": 5794,
      "Ġescrito": 5795,
      "ĠsiguiÃ³": 5796,
      "ĠCraven": 5797,
      "Este": 5798,
      "Ġescuadra": 5799,
      "ĠLeonardo": 5800,
      "ĠPraha": 5801,
      "Ġenviando": 5802,
      "Ġpuerta": 5803,
      "ĠcaracterÃŃstico": 5804,
      "ĠKonstantinou": 5805,
      "Ġcargada": 5806,
      "Ġvestuario": 5807,
      "ĠGeoffroy": 5808,
      "ĠVitality": 5809,
      "Ġseguramente": 5810,
      "Ġhorizonte": 5811,
      "Guichard": 5812,
      "44": 5813,
      "Ah": 5814,
      "EX": 5815,
      "Emer": 5816,
      "Fulham": 5817,
      "In": 5818,
      "MEX": 5819,
      "aÃŃn": 5820,
      "jeti": 5821,
      "zban": 5822,
      "Ġlon": 5823,
      "enico": 5824,
      "entin": 5825,
      "uni": 5826,
      "unty": 5827,
      "ĠCruz": 5828,
      "dib": 5829,
      "ĠAMEX": 5830,
      "ĠLar": 5831,
      "tens": 5832,
      "Ġnervi": 5833,
      "Ġreti": 5834,
      "ĠRus": 5835,
      "ĠDy": 5836,
      "ilos": 5837,
      "file": 5838,
      "ĠHigu": 5839,
      "ĠJC": 5840,
      "merzban": 5841,
      "ĠKoo": 5842,
      "mine": 5843,
      "ĠWien": 5844,
      "ĠOlympi": 5845,
      "OOL": 5846,
      "irmin": 5847,
      "pei": 5848,
      "Ġimpar": 5849,
      "ĠMary": 5850,
      "Ġesperando": 5851,
      "ĠpunterÃŃa": 5852,
      "giado": 5853,
      "rup": 5854,
      "Ġterri": 5855,
      "astadion": 5856,
      "Ġampliar": 5857,
      "ĠCounty": 5858,
      "ĠBoek": 5859,
      "ĠAndy": 5860,
      "uardo": 5861,
      "ĠBarÃ§a": 5862,
      "Ġadecu": 5863,
      "ĠÃ©xito": 5864,
      "Ġreno": 5865,
      "ĠCommerzban": 5866,
      "Ġplanes": 5867,
      "ĠEduardo": 5868,
      "Ġdaba": 5869,
      "Ġmila": 5870,
      "ĠÃģlvarez": 5871,
      "ĠDomenico": 5872,
      "ĠRiccardo": 5873,
      "ĠLondon": 5874,
      "ĠJÃ©rÃ©my": 5875,
      "ĠdesesperaciÃ³n": 5876,
      "ĠAthletiksport": 5877,
      "Ġpelea": 5878,
      "Ġvertical": 5879,
      "Ġatacante": 5880,
      "ĠAubameyang": 5881,
      "ĠZlatan": 5882,
      "ĠenergÃŃa": 5883,
      "ĠBragantino": 5884,
      "jetivos": 5885,
      "ĠHiguaÃŃn": 5886,
      "ĠOlympiastadion": 5887,
      "ĠBoekel": 5888,
      "ĠCommerzbank": 5889,
      "400": 5890,
      "99": 5891,
      "eter": 5892,
      "jaron": 5893,
      "rer": 5894,
      "Ġaho": 5895,
      "eses": 5896,
      "Ġsue": 5897,
      "tegi": 5898,
      "tiv": 5899,
      "tivos": 5900,
      "Ã¡g": 5901,
      "ĠAdu": 5902,
      "riz": 5903,
      "Ġesas": 5904,
      "cher": 5905,
      "chia": 5906,
      "ĠFrosinone": 5907,
      "Ġnor": 5908,
      "ĠGel": 5909,
      "ĠHol": 5910,
      "acto": 5911,
      "ĠLetex": 5912,
      "ĠWal": 5913,
      "ĠMapei": 5914,
      "Ã±os": 5915,
      "Ġdesaf": 5916,
      "Ġ98": 5917,
      "ĠCallum": 5918,
      "Ġexqu": 5919,
      "ĠEsporte": 5920,
      "ĠZag": 5921,
      "ĠArna": 5922,
      "park": 5923,
      "gentina": 5924,
      "ĠGiro": 5925,
      "ĠBene": 5926,
      "ĠBenzema": 5927,
      "Ġobjetivos": 5928,
      "ĠAleks": 5929,
      "ĠStuart": 5930,
      "ĠPhilippe": 5931,
      "Ġtranscur": 5932,
      "Ġtalentos": 5933,
      "Nottingham": 5934,
      "ĠatÃ³n": 5935,
      "ĠRiviera": 5936,
      "ĠMassi": 5937,
      "Ġcorrecto": 5938,
      "Ã¨ve": 5939,
      "ĠÃ©pico": 5940,
      "ĠGround": 5941,
      "ĠGerard": 5942,
      "Ġescuadras": 5943,
      "Ġteleno": 5944,
      "ĠGenÃ¨ve": 5945,
      "ĠKlaas": 5946,
      "Ġutilizando": 5947,
      "Ġextremos": 5948,
      "Ġincidentes": 5949,
      "ĠNijhuis": 5950,
      "ĠcompensaciÃ³n": 5951,
      "Ġlondin": 5952,
      "ĠLetexier": 5953,
      "bridge": 5954,
      "igo": 5955,
      "tch": 5956,
      "yi": 5957,
      "dell": 5958,
      "ĠlanzÃ³": 5959,
      "dou": 5960,
      "ĠClermont": 5961,
      "ĠAunque": 5962,
      "ĠFab": 5963,
      "ĠBlu": 5964,
      "Ġna": 5965,
      "ĠRie": 5966,
      "ĠDing": 5967,
      "mbra": 5968,
      "rante": 5969,
      "ĠTa": 5970,
      "ĠTir": 5971,
      "verÃŃa": 5972,
      "Ġapag": 5973,
      "tinto": 5974,
      "Ġmetros": 5975,
      "ĠRoda": 5976,
      "ĠMarko": 5977,
      "ĠEstrada": 5978,
      "orns": 5979,
      "Ġsenda": 5980,
      "Ġley": 5981,
      "ĠJoe": 5982,
      "Ġnueve": 5983,
      "Ġagua": 5984,
      "Ġauda": 5985,
      "ĠDover": 5986,
      "Ġsentenciar": 5987,
      "Ġprotagonistas": 5988,
      "ĠSalom": 5989,
      "tismo": 5990,
      "ĠKarl": 5991,
      "ĠMoss": 5992,
      "Ġacerc": 5993,
      "ĠJong": 5994,
      "Ġdesafiar": 5995,
      "Ġencontradas": 5996,
      "ĠPereira": 5997,
      "Ġmajestuoso": 5998,
      "ĠGroupama": 5999,
      "usticia": 6000,
      "ĠprÃ¡cticamente": 6001,
      "Ġtelenovela": 6002,
      "ĠTirol": 6003,
      "Willem": 6004,
      "jeta": 6005,
      "lÃŃn": 6006,
      "ymar": 6007,
      "algen": 6008,
      "quez": 6009,
      "isso": 6010,
      "Ġsuizo": 6011,
      "ĠBale": 6012,
      "rade": 6013,
      "ĠRu": 6014,
      "chap": 6015,
      "ĠVar": 6016,
      "Ġespl": 6017,
      "igan": 6018,
      "ĠHun": 6019,
      "ĠJa": 6020,
      "ĠKam": 6021,
      "Ġrestable": 6022,
      "Ġactitud": 6023,
      "lancos": 6024,
      "quÃŃn": 6025,
      "Ġevitar": 6026,
      "Ġdispuestos": 6027,
      "ĠBerlÃŃn": 6028,
      "Ġrojo": 6029,
      "Ġfrustr": 6030,
      "ĠAntony": 6031,
      "Ġmilan": 6032,
      "ĠFelipe": 6033,
      "ĠNeymar": 6034,
      "Ġpresionar": 6035,
      "waard": 6036,
      "ĠJonas": 6037,
      "Ġacortar": 6038,
      "ĠBrych": 6039,
      "Ġfulmin": 6040,
      "Ġfluido": 6041,
      "ĠLukas": 6042,
      "ĠbrindÃ³": 6043,
      "Ġapode": 6044,
      "ĠbÃ¡var": 6045,
      "Ġastucia": 6046,
      "ĠSturm": 6047,
      "Ġejemplo": 6048,
      "Cuando": 6049,
      "ĠAduriz": 6050,
      "algenwaard": 6051,
      "tÃ³n": 6052,
      "yne": 6053,
      "Ġos": 6054,
      "Ġdere": 6055,
      "ong": 6056,
      "enit": 6057,
      "arella": 6058,
      "tique": 6059,
      "dir": 6060,
      "Ġvia": 6061,
      "Ġsufri": 6062,
      "ĠESTAC": 6063,
      "Ġrey": 6064,
      "Ġhan": 6065,
      "tsch": 6066,
      "ĠGood": 6067,
      "ĠVVV": 6068,
      "ĠTier": 6069,
      "ĠLeandro": 6070,
      "Ġanhel": 6071,
      "ĠKris": 6072,
      "Ġtarjeta": 6073,
      "Ġimpi": 6074,
      "hausen": 6075,
      "nadas": 6076,
      "berger": 6077,
      "lymp": 6078,
      "Ã©ndose": 6079,
      "ĠManolo": 6080,
      "Ġbaile": 6081,
      "Ġpresenciaron": 6082,
      "Ġcandida": 6083,
      "agliarella": 6084,
      "ĠsoÃ±aba": 6085,
      "Ġlidi": 6086,
      "ĠSoto": 6087,
      "ĠTomÃ¡s": 6088,
      "Ġdramatismo": 6089,
      "ĠYoung": 6090,
      "ĠQuagliarella": 6091,
      "ĠSebastian": 6092,
      "ĠÃ¡nimos": 6093,
      "ĠtelÃ³n": 6094,
      "ĠdecepcionÃ³": 6095,
      "ĠreavivÃ³": 6096,
      "Ġllama": 6097,
      "ĠRaymond": 6098,
      "ĠajustÃ³": 6099,
      "ĠGiacom": 6100,
      "ĠPortugal": 6101,
      "ĠJoaquÃŃn": 6102,
      "Ġdirigir": 6103,
      "ĠCuadra": 6104,
      "Ġorgullo": 6105,
      "Ġsupieron": 6106,
      "Ġresiliencia": 6107,
      "Emerick": 6108,
      "Ġtalentoso": 6109,
      "ĠDingert": 6110,
      "Ġfulminante": 6111,
      "ĠTierney": 6112,
      "Spor": 6113,
      "egiado": 6114,
      "ncia": 6115,
      "ster": 6116,
      "schap": 6117,
      "ennes": 6118,
      "ĠaÃ±a": 6119,
      "Ġunieron": 6120,
      "ornadas": 6121,
      "ĠCÃ¡r": 6122,
      "ĠCha": 6123,
      "Ġsello": 6124,
      "ĠAbe": 6125,
      "ĠAthli": 6126,
      "Ġreag": 6127,
      "ĠRol": 6128,
      "ĠRich": 6129,
      "uena": 6130,
      "ĠGall": 6131,
      "Ġjornadas": 6132,
      "saciones": 6133,
      "tins": 6134,
      "traba": 6135,
      "aliza": 6136,
      "ĠllevÃ¡ndose": 6137,
      "Ġperse": 6138,
      "Ġcolegiado": 6139,
      "hof": 6140,
      "ĠZenit": 6141,
      "onato": 6142,
      "Ġtercio": 6143,
      "ĠYann": 6144,
      "quÃŃa": 6145,
      "ĠEuroborg": 6146,
      "ĠBoys": 6147,
      "menes": 6148,
      "ĠÃĵ": 6149,
      "ĠIng": 6150,
      "Ġsuperado": 6151,
      "ximo": 6152,
      "Ġvencer": 6153,
      "ĠHerrera": 6154,
      "Ġcolocar": 6155,
      "Ġvelada": 6156,
      "Leeds": 6157,
      "Ġcreando": 6158,
      "ĠLenstra": 6159,
      "Ġguerra": 6160,
      "ĠestirÃ³": 6161,
      "ĠAdrien": 6162,
      "ĠYousse": 6163,
      "ĠFritz": 6164,
      "ĠBuquet": 6165,
      "ĠFernandes": 6166,
      "ĠAllÃŃ": 6167,
      "Ġdisfrutar": 6168,
      "ĠHakim": 6169,
      "ĠKuip": 6170,
      "ĠJimÃ©nez": 6171,
      "ĠconectÃ³": 6172,
      "ĠMichel": 6173,
      "ĠVeltins": 6174,
      "ĠMaurizio": 6175,
      "Ġcerteza": 6176,
      "ĠGraafschap": 6177,
      "enciennes": 6178,
      "Ġbolsi": 6179,
      "ĠStieler": 6180,
      "ĠRuddy": 6181,
      "Ġfundamental": 6182,
      "ĠJaime": 6183,
      "posiciÃ³n": 6184,
      "ĠGiroud": 6185,
      "ĠBenevento": 6186,
      "ĠCÃ¡rmenes": 6187,
      "ĠYoussef": 6188,
      "NK": 6189,
      "bÃŃa": 6190,
      "ea": 6191,
      "mut": 6192,
      "yri": 6193,
      "zquier": 6194,
      "Ġlis": 6195,
      "taÅŁ": 6196,
      "Ġsan": 6197,
      "Ġsag": 6198,
      "Ġsho": 6199,
      "cius": 6200,
      "ĠmÃŃn": 6201,
      "tiga": 6202,
      "Ġdesgas": 6203,
      "Ġreal": 6204,
      "ĠDone": 6205,
      "ĠPic": 6206,
      "lay": 6207,
      "ĠGau": 6208,
      "ĠGuar": 6209,
      "tugu": 6210,
      "Ġportugu": 6211,
      "Ġencuentra": 6212,
      "Ġapre": 6213,
      "ĠMata": 6214,
      "Ġmantiene": 6215,
      "Ġsuspen": 6216,
      "ĠAnasta": 6217,
      "Ġfueran": 6218,
      "Ġexpec": 6219,
      "Ġmarch": 6220,
      "Ġroj": 6221,
      "ĠAuguste": 6222,
      "Ġfutbolera": 6223,
      "Ġoptim": 6224,
      "ĠBramall": 6225,
      "Ġtranscurridos": 6226,
      "iktaÅŁ": 6227,
      "ĠRash": 6228,
      "Ġrespec": 6229,
      "Ġcontendiente": 6230,
      "ÅŁiktaÅŁ": 6231,
      "ĠdespidiÃ³": 6232,
      "ĠdespertÃ³": 6233,
      "ĠhistÃ³rica": 6234,
      "'),": 6235,
      "ĠMariani": 6236,
      "Goooo": 6237,
      "Ġtercero": 6238,
      "pswich": 6239,
      "Ġmilagro": 6240,
      "ĠGoodison": 6241,
      "lympiak": 6242,
      "Sporting": 6243,
      "Ġbolsillo": 6244,
      "Ġshow": 6245,
      "84": 6246,
      "IO": 6247,
      "bri": 6248,
      "dan": 6249,
      "gg": 6250,
      "gica": 6251,
      "iano": 6252,
      "ider": 6253,
      "mu": 6254,
      "pado": 6255,
      "samente": 6256,
      "tad": 6257,
      "Ġafor": 6258,
      "erro": 6259,
      "Ġces": 6260,
      "esas": 6261,
      "aland": 6262,
      "ĠSPAL": 6263,
      "Ġcontar": 6264,
      "Ġconqu": 6265,
      "lex": 6266,
      "ĠFÃ¶r": 6267,
      "ĠnÃº": 6268,
      "ĠRui": 6269,
      "Ġjoy": 6270,
      "ĠVÃŃ": 6271,
      "Elche": 6272,
      "ĠTim": 6273,
      "ĠKi": 6274,
      "Energ": 6275,
      "Ġaplas": 6276,
      "ĠIr": 6277,
      "ĠdisposiciÃ³n": 6278,
      "Ġcompuesta": 6279,
      "ĠAspas": 6280,
      "Ã©nix": 6281,
      "ordin": 6282,
      "manuel": 6283,
      "ĠJosip": 6284,
      "Ġsorprendiendo": 6285,
      "ĠBalo": 6286,
      "ineux": 6287,
      "Ġnecesita": 6288,
      "Ġinclin": 6289,
      "ĠplantÃ³": 6290,
      "Ġamarillo": 6291,
      "ĠMolineux": 6292,
      "ĠcongregÃ³": 6293,
      "Ġflui": 6294,
      "Ġqueridos": 6295,
      "ĠKerkrade": 6296,
      "Ġpropicio": 6297,
      "ĠIsak": 6298,
      "ĠWilliams": 6299,
      "Ġempezaba": 6300,
      "Ġprincip": 6301,
      "ĠRheinEnerg": 6302,
      "Ġencima": 6303,
      "Ġreagru": 6304,
      "ĠmÃŃnima": 6305,
      "ĠFÃ¶rster": 6306,
      "ĠRheinEnergie": 6307,
      "Am": 6308,
      "DIO": 6309,
      "Galgenwaard": 6310,
      "Hannover": 6311,
      "dÃ³n": 6312,
      "eus": 6313,
      "nab": 6314,
      "quÃ©": 6315,
      "twell": 6316,
      "wen": 6317,
      "ĠenviÃ³": 6318,
      "ĠCorn": 6319,
      "Ġsemb": 6320,
      "ĠfÃ©nix": 6321,
      "ĠAir": 6322,
      "ĠMou": 6323,
      "ĠMuri": 6324,
      "ĠBet": 6325,
      "ĠEk": 6326,
      "ulaciÃ³n": 6327,
      "Ġhervi": 6328,
      "STADIO": 6329,
      "Ġinvi": 6330,
      "Ġbas": 6331,
      "abÃŃa": 6332,
      "ĠovaciÃ³n": 6333,
      "verancia": 6334,
      "anovic": 6335,
      "ĠWel": 6336,
      "ĠOvi": 6337,
      "Ġmantuvieron": 6338,
      "ĠItalia": 6339,
      "Ġgracia": 6340,
      "Ġpresti": 6341,
      "ĠEnn": 6342,
      "Ġtantos": 6343,
      "ĠMarrin": 6344,
      "Ġpasaron": 6345,
      "Ġjubilo": 6346,
      "Ġarre": 6347,
      "Ġllevar": 6348,
      "erni": 6349,
      "Ġsopla": 6350,
      "ĠAttwell": 6351,
      "Ġconsuelo": 6352,
      "ĠcontrolÃ³": 6353,
      "erem": 6354,
      "ĠsabÃŃa": 6355,
      "ĠCuando": 6356,
      "Ġpies": 6357,
      "ĠMousto": 6358,
      "kovic": 6359,
      "boa": 6360,
      "Ġdirigidos": 6361,
      "ĠHaaland": 6362,
      "Ġfalencias": 6363,
      "Ġconsigui": 6364,
      "Ġpaseo": 6365,
      "Ġdeseo": 6366,
      "ĠprÃ³ximas": 6367,
      "RKC": 6368,
      "donos": 6369,
      "ĠKyiv": 6370,
      "Ġaflo": 6371,
      "balski": 6372,
      "ĠMatheus": 6373,
      "accabi": 6374,
      "Ġlluvia": 6375,
      "Ġfelicidad": 6376,
      "Ġboquiabiertos": 6377,
      "ĠapoderÃ³": 6378,
      "Ġlidiar": 6379,
      "Ġperseverancia": 6380,
      "ĠRheinEnergieSTADIO": 6381,
      "Ġhervidero": 6382,
      "ĠMarriner": 6383,
      "ĠMoustoir": 6384,
      "ĠRheinEnergieSTADION": 6385,
      "69": 6386,
      "73": 6387,
      "Excelsior": 6388,
      "Klub": 6389,
      "Sw": 6390,
      "brÃ³": 6391,
      "bles": 6392,
      "cÃŃa": 6393,
      "cÃ¡n": 6394,
      "gando": 6395,
      "ool": 6396,
      "rÃŃan": 6397,
      "Ġave": 6398,
      "Ġaum": 6399,
      "erte": 6400,
      "Ġcosa": 6401,
      "anag": 6402,
      "tivamente": 6403,
      "reb": 6404,
      "lecht": 6405,
      "Ġvilo": 6406,
      "ĠFra": 6407,
      "Ġpare": 6408,
      "ĠEindhoven": 6409,
      "Ġalgar": 6410,
      "Ã©lÃ©": 6411,
      "Ġning": 6412,
      "ĠRiver": 6413,
      "ĠDri": 6414,
      "uendo": 6415,
      "Ġbre": 6416,
      "Ġbases": 6417,
      "mbÃ©lÃ©": 6418,
      "ĠHig": 6419,
      "ĠTony": 6420,
      "ĠJar": 6421,
      "ĠJhon": 6422,
      "zada": 6423,
      "ĠNico": 6424,
      "llas": 6425,
      "llani": 6426,
      "ĠKu": 6427,
      "ĠRojas": 6428,
      "Ã¡ndonos": 6429,
      "Ġextra": 6430,
      "Ġigualada": 6431,
      "Ġpromesas": 6432,
      "Ġverdib": 6433,
      "Ġsop": 6434,
      "Ġanotado": 6435,
      "Ġsensaciones": 6436,
      "Ã¶ren": 6437,
      "ĠPatr": 6438,
      "ĠPauli": 6439,
      "Ġredu": 6440,
      "ĠCarlo": 6441,
      "Ġinspira": 6442,
      "energy": 6443,
      "Ġcapital": 6444,
      "Ġderbi": 6445,
      "ĠMorata": 6446,
      "ĠSalerni": 6447,
      "ĠÃŃdo": 6448,
      "Ġgargan": 6449,
      "ĠDarren": 6450,
      "ĠAndrej": 6451,
      "ĠTurf": 6452,
      "Ġansiosos": 6453,
      "ĠAlmere": 6454,
      "ĠAnderlecht": 6455,
      "ĠEmmen": 6456,
      "ĠGeorgi": 6457,
      "Ġgeni": 6458,
      "ĠAritz": 6459,
      "ĠNikola": 6460,
      "ĠdesorganizaciÃ³n": 6461,
      "Ġcombativo": 6462,
      "ĠSascha": 6463,
      "ĠZagreb": 6464,
      "ĠBluenergy": 6465,
      "erroise": 6466,
      "ĠVÃŃctor": 6467,
      "Ġfluidez": 6468,
      "ĠalgarabÃŃa": 6469,
      "ĠSalernitana": 6470,
      "Pr": 6471,
      "beck": 6472,
      "nera": 6473,
      "uÃŃa": 6474,
      "zaron": 6475,
      "Ġtuvieron": 6476,
      "Ġepo": 6477,
      "Ġsir": 6478,
      "Ġpul": 6479,
      "Ġmoral": 6480,
      "ĠLero": 6481,
      "Ġsumando": 6482,
      "ĠBres": 6483,
      "gaard": 6484,
      "ĠRap": 6485,
      "laars": 6486,
      "sios": 6487,
      "tballklub": 6488,
      "eroen": 6489,
      "ĠVec": 6490,
      "ĠVla": 6491,
      "ĠHoo": 6492,
      "ĠHuddersfield": 6493,
      "ĠLauta": 6494,
      "ĠJans": 6495,
      "ĠJeroen": 6496,
      "acer": 6497,
      "paciÃ³n": 6498,
      "Ġarroll": 6499,
      "Ġtemi": 6500,
      "Ġaguar": 6501,
      "Ġestrategi": 6502,
      "Ġnecesaria": 6503,
      "Ġdesbordar": 6504,
      "Ġescribe": 6505,
      "ĠAndreas": 6506,
      "ĠBruyne": 6507,
      "ĠAllard": 6508,
      "Ġalgunas": 6509,
      "Ġplanteamiento": 6510,
      "Ġsignif": 6511,
      "ĠAdelaars": 6512,
      "ĠSime": 6513,
      "ĠdibujÃ³": 6514,
      "Ġolvidar": 6515,
      "hout": 6516,
      "ight": 6517,
      "ffert": 6518,
      "Ġvulnera": 6519,
      "ĠRiyadh": 6520,
      "ĠcirculaciÃ³n": 6521,
      "ĠMaximi": 6522,
      "Ġentren": 6523,
      "ĠLisboa": 6524,
      "ĠcrÃŃticos": 6525,
      "ĠLindhout": 6526,
      "ĠAnastasios": 6527,
      "lympiakos": 6528,
      "Ġprestigi": 6529,
      "Ġgenialidad": 6530,
      "Prins": 6531,
      "ĠLautaro": 6532,
      "Ġestrategias": 6533,
      "ĠAdelaarshorst": 6534,
      "88": 6535,
      "EL": 6536,
      "OP": 6537,
      "bera": 6538,
      "hen": 6539,
      "kes": 6540,
      "ms": 6541,
      "nip": 6542,
      "wagen": 6543,
      "ÅĦ": 6544,
      "Ġdemasi": 6545,
      "erar": 6546,
      "dora": 6547,
      "uela": 6548,
      "Ġentrada": 6549,
      "ĠCOP": 6550,
      "ĠSA": 6551,
      "ĠSpezia": 6552,
      "ĠAma": 6553,
      "Ġvino": 6554,
      "ĠPun": 6555,
      "ĠdueÃ±o": 6556,
      "ĠGam": 6557,
      "Ġbloque": 6558,
      "Ġjerar": 6559,
      "ĠHal": 6560,
      "Ġviva": 6561,
      "Ġof": 6562,
      "minis": 6563,
      "Ġida": 6564,
      "Ġabul": 6565,
      "Ġresal": 6566,
      "vey": 6567,
      "Ġtardaron": 6568,
      "Ġvibraban": 6569,
      "centraciÃ³n": 6570,
      "ĠLuuk": 6571,
      "ĠYan": 6572,
      "parse": 6573,
      "Ġaleman": 6574,
      "Ġfirmaron": 6575,
      "ĠJuli": 6576,
      "maric": 6577,
      "ĠsuperÃ³": 6578,
      "ĠMili": 6579,
      "ĠMika": 6580,
      "Ġadminis": 6581,
      "Ġpoderoso": 6582,
      "Ġreflejaba": 6583,
      "ĠAlberola": 6584,
      "ĠJeunes": 6585,
      "ĠMosson": 6586,
      "ĠNathan": 6587,
      "Ġcima": 6588,
      "Ġarbitrado": 6589,
      "Ġapoyo": 6590,
      "ĠVolkswagen": 6591,
      "ĠdanÃ©s": 6592,
      "ĠSlavia": 6593,
      "ĠKramaric": 6594,
      "ĠdesilusiÃ³n": 6595,
      "Ġensordecedor": 6596,
      "ĠPizarro": 6597,
      "ĠrepitiÃ³": 6598,
      "Ġepope": 6599,
      "ĠCOPE": 6600,
      "ĠJeunesse": 6601,
      "ADO": 6602,
      "Ham": 6603,
      "Play": 6604,
      "bos": 6605,
      "bran": 6606,
      "eda": 6607,
      "marc": 6608,
      "mus": 6609,
      "net": 6610,
      "vsk": 6611,
      "xerroise": 6612,
      "yec": 6613,
      "Ð¾": 6614,
      "ĠTS": 6615,
      "onon": 6616,
      "Ġcron": 6617,
      "inio": 6618,
      "Ġunos": 6619,
      "try": 6620,
      "telos": 6621,
      "daval": 6622,
      "Ã¡z": 6623,
      "ĠMew": 6624,
      "tente": 6625,
      "Ġsuerte": 6626,
      "ombi": 6627,
      "Ġdesfile": 6628,
      "rada": 6629,
      "ĠPign": 6630,
      "ĠVen": 6631,
      "Ġestatus": 6632,
      "ĠNew": 6633,
      "Ġllegaron": 6634,
      "sato": 6635,
      "ĠIli": 6636,
      "ĠIcar": 6637,
      "Ã¼n": 6638,
      "ĠquiÃ©n": 6639,
      "ĠcompaÃ±": 6640,
      "venidos": 6641,
      "ĠDembÃ©lÃ©": 6642,
      "Ġperder": 6643,
      "ĠCiuta": 6644,
      "Ġcolombi": 6645,
      "lantique": 6646,
      "Ġaproxima": 6647,
      "ading": 6648,
      "Ġpostre": 6649,
      "ĠLuton": 6650,
      "anzaron": 6651,
      "Ġserio": 6652,
      "ĠAtlantique": 6653,
      "Ġconstruc": 6654,
      "ĠSanÃ©": 6655,
      "Ġmedia": 6656,
      "ĠVillan": 6657,
      "ĠÃľ": 6658,
      "Ġinsistencia": 6659,
      "Ġinstinto": 6660,
      "Ġauxerroise": 6661,
      "Ġvendaval": 6662,
      "Ġpocos": 6663,
      "arago": 6664,
      "ĠThiago": 6665,
      "ĠThonon": 6666,
      "ĠcapitÃ¡n": 6667,
      "Ġsorprender": 6668,
      "Ġalivio": 6669,
      "ĠMorgan": 6670,
      "ĠMatmut": 6671,
      "Ġinmedia": 6672,
      "ĠRasmus": 6673,
      "Ġluchando": 6674,
      "bieran": 6675,
      "ĠOrsato": 6676,
      "ĠKopa": 6677,
      "Ġfinalizar": 6678,
      "ĠallÃ¡": 6679,
      "Ġsatisf": 6680,
      "ĠKerkhof": 6681,
      "Ġconfirmando": 6682,
      "Ġencontraba": 6683,
      "Ġreavivando": 6684,
      "Ġimpulso": 6685,
      "ĠViktoria": 6686,
      "Ġcautelos": 6687,
      "Ġsobresal": 6688,
      "ĠJako": 6689,
      "Ġsatisfechos": 6690,
      "ĠrevitalizÃ³": 6691,
      "Ġexquisita": 6692,
      "ĠDonetsk": 6693,
      "ĠBetPlay": 6694,
      "ĠconsiguiÃ³": 6695,
      "ĠLeroy": 6696,
      "ĠSimeone": 6697,
      "ĠjerarquÃŃa": 6698,
      "ĠMewa": 6699,
      "ĠPignard": 6700,
      "ĠIcardi": 6701,
      "ĠCiutat": 6702,
      "bell": 6703,
      "cada": 6704,
      "eto": 6705,
      "gia": 6706,
      "ograd": 6707,
      "scar": 6708,
      "uto": 6709,
      "zy": 6710,
      "zor": 6711,
      "ÅĪ": 6712,
      "Ġ&": 6713,
      "Ġtu": 6714,
      "endam": 6715,
      "Ġago": 6716,
      "Ġagol": 6717,
      "Ġcro": 6718,
      "ĠcÃ¡n": 6719,
      "une": 6720,
      "Ġpusieron": 6721,
      "Ġenton": 6722,
      "tier": 6723,
      "ĠCre": 6724,
      "Ġconocido": 6725,
      "Ġconvier": 6726,
      "Ġves": 6727,
      "Ġgu": 6728,
      "ĠEur": 6729,
      "Ġnu": 6730,
      "rott": 6731,
      "Ġdura": 6732,
      "usi": 6733,
      "sim": 6734,
      "Ġbrisa": 6735,
      "ill": 6736,
      "tores": 6737,
      "Ġcuer": 6738,
      "Ġcuyo": 6739,
      "ĠcuestiÃ³n": 6740,
      "iens": 6741,
      "tinho": 6742,
      "Ġasom": 6743,
      "ĠIpur": 6744,
      "ĠAlten": 6745,
      "ĠRoger": 6746,
      "Ġluces": 6747,
      "ĠSergi": 6748,
      "Ġperson": 6749,
      "ardy": 6750,
      "GOOOOOL": 6751,
      "Ġconcur": 6752,
      "Ġnuevas": 6753,
      "Ġcompetitivo": 6754,
      "ĠMoix": 6755,
      "Ġdesarrollara": 6756,
      "landÃ©s": 6757,
      "zeÅĪ": 6758,
      "Ġlidera": 6759,
      "ĠBeograd": 6760,
      "Ġhemos": 6761,
      "Ġhubo": 6762,
      "Ġajustado": 6763,
      "Ġantici": 6764,
      "Ġperfecto": 6765,
      "Ġmerecido": 6766,
      "ĠBolla": 6767,
      "areth": 6768,
      "ocopa": 6769,
      "ĠBrisard": 6770,
      "ĠLudogorets": 6771,
      "ĠPelleg": 6772,
      "Ġrepartieron": 6773,
      "ĠJoshua": 6774,
      "Ġhermos": 6775,
      "Ġindiscutible": 6776,
      "ĠClaudio": 6777,
      "ĠPlzeÅĪ": 6778,
      "ĠIÃ±aki": 6779,
      "ĠmomentÃ¡neamente": 6780,
      "Ġincapaz": 6781,
      "Ġimparable": 6782,
      "Ġsagrado": 6783,
      "ĠGautier": 6784,
      "ĠFÃ¶rsterei": 6785,
      "ĠHigler": 6786,
      "Ġdemasiado": 6787,
      "ĠGameiro": 6788,
      "Ã¡zquez": 6789,
      "ĠconstrucciÃ³n": 6790,
      "ĠEurocopa": 6791,
      "ĠIpurua": 6792,
      "Ambos": 6793,
      "bro": 6794,
      "ech": 6795,
      "gura": 6796,
      "iron": 6797,
      "oeta": 6798,
      "scho": 6799,
      "umbra": 6800,
      "inn": 6801,
      "ueva": 6802,
      "ĠlatÃŃan": 6803,
      "orÃ©": 6804,
      "trÃŃa": 6805,
      "ĠSk": 6806,
      "ĠARENA": 6807,
      "Ġva": 6808,
      "rilla": 6809,
      "ĠLlor": 6810,
      "Ġalar": 6811,
      "ĠGareth": 6812,
      "Ġboca": 6813,
      "urÃ©": 6814,
      "ĠVardy": 6815,
      "ĠHad": 6816,
      "ĠTan": 6817,
      "mato": 6818,
      "tÃ³ria": 6819,
      "Ġanoni": 6820,
      "iencia": 6821,
      "Ġresca": 6822,
      "ĠMats": 6823,
      "thi": 6824,
      "Ġdiana": 6825,
      "ĠAnoeta": 6826,
      "derado": 6827,
      "Ġamil": 6828,
      "Ġacari": 6829,
      "Ġiniciado": 6830,
      "blemente": 6831,
      "ĠcolmÃ³": 6832,
      "ĠdominÃ³": 6833,
      "ĠZarago": 6834,
      "inaba": 6835,
      "Ġcontrolando": 6836,
      "ĠHoy": 6837,
      "Ġbail": 6838,
      "ĠSand": 6839,
      "rass": 6840,
      "Ġdecisivos": 6841,
      "ugh": 6842,
      "Ġefecto": 6843,
      "ĠtitÃ¡n": 6844,
      "aleda": 6845,
      "itz": 6846,
      "ttenburg": 6847,
      "Ġilumin": 6848,
      "Parma": 6849,
      "Ġsorprendente": 6850,
      "ĠGonÃ§": 6851,
      "Ġsistemas": 6852,
      "Ġtranscurrido": 6853,
      "ĠmaestrÃŃa": 6854,
      "ĠErling": 6855,
      "ĠsalvaciÃ³n": 6856,
      "ĠGoffert": 6857,
      "Ġbanda": 6858,
      "ĠRosaleda": 6859,
      "Ġaumentar": 6860,
      "ĠMassa": 6861,
      "FuÃŁballclub": 6862,
      "ĠVolendam": 6863,
      "Ġacercaba": 6864,
      "Ġhubieran": 6865,
      "ĠTraorÃ©": 6866,
      "ĠClattenburg": 6867,
      "ĠpintÃ³": 6868,
      "Ġindicar": 6869,
      "Ġpensaban": 6870,
      "Ġrostro": 6871,
      "Ġdeslumbrante": 6872,
      "ĠBristol": 6873,
      "ĠLudovic": 6874,
      "Ġpenumbra": 6875,
      "ĠKamphuis": 6876,
      "ĠHartmann": 6877,
      "Ġinquietar": 6878,
      "Ġmerengue": 6879,
      "Ġmurmullo": 6880,
      "Ġcampeonato": 6881,
      "ĠValÃ¨ncia": 6882,
      "Ġlondinense": 6883,
      "ĠÃĵscar": 6884,
      "Ġreagruparse": 6885,
      "Swansea": 6886,
      "ĠJanssen": 6887,
      "Ġanonimato": 6888,
      "ĠZaragoza": 6889,
      "ĠGoffertstadion": 6890,
      "Burnley": 6891,
      "Dela": 6892,
      "FÃºtbol": 6893,
      "Peter": 6894,
      "bur": 6895,
      "imin": 6896,
      "iÄĩ": 6897,
      "ardi": 6898,
      "Ġelimin": 6899,
      "inic": 6900,
      "Ġpaliza": 6901,
      "alter": 6902,
      "orc": 6903,
      "tilla": 6904,
      "lemen": 6905,
      "ÃŃfica": 6906,
      "ĠBl": 6907,
      "ĠBur": 6908,
      "ĠBingo": 6909,
      "raf": 6910,
      "Ġne": 6911,
      "Ġreto": 6912,
      "Ġreali": 6913,
      "ĠRaz": 6914,
      "ĠPesc": 6915,
      "Ġtriste": 6916,
      "Ġtrueno": 6917,
      "ĠVÃ¡zquez": 6918,
      "ĠHor": 6919,
      "ĠJab": 6920,
      "abbi": 6921,
      "vern": 6922,
      "rencia": 6923,
      "Ġresuena": 6924,
      "ĠMah": 6925,
      "pata": 6926,
      "ĠDepay": 6927,
      "gemann": 6928,
      "Ġtenso": 6929,
      "ĠSandro": 6930,
      "Ġdecisiones": 6931,
      "Ġmostrar": 6932,
      "Ġinspi": 6933,
      "ĠrecordÃ³": 6934,
      "tÃŃas": 6935,
      "Ã©rmin": 6936,
      "ĠmoverÃŃa": 6937,
      "udales": 6938,
      "Ġprotagonismo": 6939,
      "ĠStegemann": 6940,
      "Ġraudales": 6941,
      "ĠZapata": 6942,
      "Ġdestacado": 6943,
      "Ġinteres": 6944,
      "Argentina": 6945,
      "ĠFlorent": 6946,
      "ĠEdwin": 6947,
      "ĠtÃ©rmin": 6948,
      "phane": 6949,
      "Ã³metro": 6950,
      "ĠpreguntÃ¡ndose": 6951,
      "ĠSittard": 6952,
      "ĠOrs": 6953,
      "Ġsombra": 6954,
      "ĠGaÃ«": 6955,
      "ĠNicolÃ¡s": 6956,
      "Ġgenera": 6957,
      "ĠseÃ±alÃ³": 6958,
      "ĠMertens": 6959,
      "ĠStÃ©phane": 6960,
      "Ã¡ndole": 6961,
      "Ġfresca": 6962,
      "imentado": 6963,
      "Ġexplotar": 6964,
      "ĠFabbri": 6965,
      "ĠDoveri": 6966,
      "Ġsoplaba": 6967,
      "ĠPatrik": 6968,
      "ĠMaximilian": 6969,
      "ĠcronÃ³metro": 6970,
      "Ġcolombiano": 6971,
      "Ġconcurrencia": 6972,
      "Ġamilan": 6973,
      "Delaune": 6974,
      "ĠBingoal": 6975,
      "ĠRazgrad": 6976,
      "ĠPescara": 6977,
      "ĠJablon": 6978,
      "ĠGaÃ«tan": 6979,
      "Dome": 6980,
      "FK": 6981,
      "dres": 6982,
      "gne": 6983,
      "gland": 6984,
      "ith": 6985,
      "imi": 6986,
      "lic": 6987,
      "muni": 6988,
      "ual": 6989,
      "araba": 6990,
      "Ġsabi": 6991,
      "Ġpuro": 6992,
      "telig": 6993,
      "tekin": 6994,
      "isam": 6995,
      "ĠSign": 6996,
      "reDome": 6997,
      "Ġestos": 6998,
      "ches": 6999,
      "ĠFÃ¼r": 7000,
      "Ġaline": 7001,
      "ĠDam": 7002,
      "ĠDion": 7003,
      "ĠDav": 7004,
      "Ġdic": 7005,
      "ĠlocalÃŃa": 7006,
      "ĠTig": 7007,
      "ĠNanc": 7008,
      "Ġresto": 7009,
      "Ġresurg": 7010,
      "ĠMatÃŃas": 7011,
      "mith": 7012,
      "ĠdesafÃŃ": 7013,
      "Ġdescen": 7014,
      "derÃ³n": 7015,
      "ĠCalderÃ³n": 7016,
      "Ġdispuesta": 7017,
      "Ġcertera": 7018,
      "Ġriv": 7019,
      "ough": 7020,
      "garse": 7021,
      "Ġprodi": 7022,
      "Ġverde": 7023,
      "Ġfuerzas": 7024,
      "ĠMangan": 7025,
      "ĠManscho": 7026,
      "Ġtenido": 7027,
      "ĠGijÃ³n": 7028,
      "GOOOOOOL": 7029,
      "Ġhacen": 7030,
      "ĠÃĸ": 7031,
      "andr": 7032,
      "Ġclaves": 7033,
      "Ġataques": 7034,
      "ĠThor": 7035,
      "Ġilusiones": 7036,
      "Sportklub": 7037,
      "ĠequilibrÃ³": 7038,
      "Ġandal": 7039,
      "zeko": 7040,
      "Ġcelebraban": 7041,
      "ĠKoning": 7042,
      "inkel": 7043,
      "Ġrendimiento": 7044,
      "ĠCommuni": 7045,
      "Ġcoh": 7046,
      "ĠClaus": 7047,
      "ĠAytekin": 7048,
      "Ġestructu": 7049,
      "ĠHakimi": 7050,
      "ĠBello": 7051,
      "ĠdesplegÃ³": 7052,
      "ĠlevantÃ³": 7053,
      "Ġrecuerdo": 7054,
      "Ġentusias": 7055,
      "ĠDreisam": 7056,
      "Ġnervios": 7057,
      "ĠGelreDome": 7058,
      "Ġdesgastar": 7059,
      "Ġrealmente": 7060,
      "ĠsignificÃ³": 7061,
      "Ġinmediato": 7062,
      "ĠcÃ¡nticos": 7063,
      "Ġvestido": 7064,
      "simhen": 7065,
      "ĠSandhausen": 7066,
      "Ġinspirado": 7067,
      "arabaÄŁ": 7068,
      "ĠSignora": 7069,
      "ĠFÃ¼rth": 7070,
      "ĠNancy": 7071,
      "ĠdesafÃŃos": 7072,
      "ĠManschot": 7073,
      "ĠCommunity": 7074,
      "ĠDreisamstadion": 7075,
      "012": 7076,
      "300": 7077,
      "Col": 7078,
      "Muy": 7079,
      "Sparta": 7080,
      "Wa": 7081,
      "adas": 7082,
      "fÃ¶ren": 7083,
      "kva": 7084,
      "rÃ©s": 7085,
      "sley": 7086,
      "enco": 7087,
      "old": 7088,
      "ĠSor": 7089,
      "ĠMX": 7090,
      "ĠMur": 7091,
      "ombia": 7092,
      "Ġrev": 7093,
      "ĠDzeko": 7094,
      "ĠPon": 7095,
      "alla": 7096,
      "ĠGar": 7097,
      "ĠGak": 7098,
      "ĠGign": 7099,
      "chaux": 7100,
      "Ġmarcaron": 7101,
      "ĠHaz": 7102,
      "ĠTer": 7103,
      "ĠseguÃŃa": 7104,
      "ĠNick": 7105,
      "lland": 7106,
      "ĠKav": 7107,
      "ĠWood": 7108,
      "ĠOsimhen": 7109,
      "Ġresonaba": 7110,
      "ĠMay": 7111,
      "Ã±as": 7112,
      "mitri": 7113,
      "ĠMartÃŃn": 7114,
      "Ġcompar": 7115,
      "Ġpastel": 7116,
      "naba": 7117,
      "olito": 7118,
      "vena": 7119,
      "Ġtamb": 7120,
      "ĠPartiz": 7121,
      "part": 7122,
      "ĠValentin": 7123,
      "ĠFranco": 7124,
      "ĠVitÃ³ria": 7125,
      "ĠÃĩ": 7126,
      "Ġavance": 7127,
      "Ġsorpresivo": 7128,
      "ĠRaf": 7129,
      "ĠRat": 7130,
      "ĠWolves": 7131,
      "ĠSchmi": 7132,
      "uardia": 7133,
      "Ġsonar": 7134,
      "ĠDenis": 7135,
      "uther": 7136,
      "ficar": 7137,
      "ĠCorrea": 7138,
      "Ġdistancia": 7139,
      "ĠSochaux": 7140,
      "ĠrecordarÃ¡": 7141,
      "ĠAndrew": 7142,
      "ĠRosario": 7143,
      "Ġdirecto": 7144,
      "ĠMoskva": 7145,
      "ĠVolland": 7146,
      "ĠGregor": 7147,
      "ĠEmmanuel": 7148,
      "ĠLondres": 7149,
      "Ġdespertar": 7150,
      "ĠconformÃ³": 7151,
      "ville": 7152,
      "Ġexperimentado": 7153,
      "ĠWolfsberger": 7154,
      "ĠZorrilla": 7155,
      "ĠCastellani": 7156,
      "ĠpequeÃ±o": 7157,
      "tigamer": 7158,
      "anagh": 7159,
      "ĠinspiraciÃ³n": 7160,
      "ĠPuntigamer": 7161,
      "Hamburger": 7162,
      "ĠVillanueva": 7163,
      "Ġsobresaltos": 7164,
      "Ġentonces": 7165,
      "ĠGignac": 7166,
      "ĠHazard": 7167,
      "ĠKavanagh": 7168,
      "ĠPartizan": 7169,
      "Dele": 7170,
      "PARK": 7171,
      "edo": 7172,
      "his": 7173,
      "ioso": 7174,
      "mientos": 7175,
      "ward": 7176,
      "Â³": 7177,
      "ÅĤ": 7178,
      "demak": 7179,
      "Ġatur": 7180,
      "ĠsÃ¡": 7181,
      "inthi": 7182,
      "Ġpic": 7183,
      "ish": 7184,
      "Ġconse": 7185,
      "dilla": 7186,
      "Ġflo": 7187,
      "Ġvo": 7188,
      "ĠLars": 7189,
      "ĠMAC": 7190,
      "ĠEas": 7191,
      "ulos": 7192,
      "Ġho": 7193,
      "Ġintelig": 7194,
      "vieron": 7195,
      "usz": 7196,
      "ĠGOO": 7197,
      "tudi": 7198,
      "Ġbar": 7199,
      "Ġbuta": 7200,
      "ĠWie": 7201,
      "ĠWigan": 7202,
      "Ġreserv": 7203,
      "ĠrÃŃo": 7204,
      "Ġpresag": 7205,
      "ĠcafÃ©": 7206,
      "Ġmostraba": 7207,
      "Ġlogrado": 7208,
      "Ġlumin": 7209,
      "Ġarras": 7210,
      "Ġconstr": 7211,
      "ĠManu": 7212,
      "Ġampliando": 7213,
      "ĠValeri": 7214,
      "Ġagu": 7215,
      "mane": 7216,
      "ĠAndrÃ©s": 7217,
      "ĠSchick": 7218,
      "Ã©rica": 7219,
      "ĠcÃ³moda": 7220,
      "ĠMattia": 7221,
      "Ġescribi": 7222,
      "Ġcrear": 7223,
      "ĠLoÃ¯": 7224,
      "ĠFotballklub": 7225,
      "Ġvivieron": 7226,
      "ĠOrtiz": 7227,
      "Ġincisivo": 7228,
      "ĠperforÃ³": 7229,
      "Esto": 7230,
      "Ġmediocampistas": 7231,
      "Ġconectar": 7232,
      "ĠGenk": 7233,
      "Ġentrelazaron": 7234,
      "ĠWattelli": 7235,
      "ĠGimnas": 7236,
      "Ġejercida": 7237,
      "ĠMadley": 7238,
      "Ġplena": 7239,
      "ĠsacudiÃ³": 7240,
      "ĠHaller": 7241,
      "Ġzurdazo": 7242,
      "Ġadecuado": 7243,
      "ĠnÃºmero": 7244,
      "ĠOviedo": 7245,
      "Ġvulnerabilidad": 7246,
      "ĠBollaert": 7247,
      "Delelis": 7248,
      "demakers": 7249,
      "ĠWattellier": 7250,
      "ĠGimnasia": 7251,
      "64": 7252,
      "95": 7253,
      "Sy": 7254,
      "aÃ±a": 7255,
      "cri": 7256,
      "dura": 7257,
      "hann": 7258,
      "pÃ©": 7259,
      "tts": 7260,
      "xeira": 7261,
      "Ġon": 7262,
      "Ġeta": 7263,
      "anga": 7264,
      "inda": 7265,
      "ueens": 7266,
      "tiÄĩ": 7267,
      "daban": 7268,
      "diola": 7269,
      "legh": 7270,
      "Ġfac": 7271,
      "mphor": 7272,
      "mphis": 7273,
      "ÃŃrez": 7274,
      "Ã©dr": 7275,
      "Ġham": 7276,
      "ĠDra": 7277,
      "ĠDnip": 7278,
      "ĠPan": 7279,
      "Ġinyec": 7280,
      "terio": 7281,
      "vile": 7282,
      "ustin": 7283,
      "sie": 7284,
      "ĠGunners": 7285,
      "tarque": 7286,
      "ĠTadi": 7287,
      "ĠToni": 7288,
      "ĠJaco": 7289,
      "mable": 7290,
      "ĠNolito": 7291,
      "jaba": 7292,
      "ĠOri": 7293,
      "Ġresqui": 7294,
      "vez": 7295,
      "Ġimpusieron": 7296,
      "Ġimplemen": 7297,
      "Ġquiere": 7298,
      "Ġcomenzar": 7299,
      "ĠReale": 7300,
      "Ġtorbell": 7301,
      "questa": 7302,
      "ĠsentÃ³": 7303,
      "ezia": 7304,
      "Ġhace": 7305,
      "fonso": 7306,
      "Ġmediante": 7307,
      "ĠBob": 7308,
      "Ġorquesta": 7309,
      "ĠMemphis": 7310,
      "ÃŃstica": 7311,
      "Ġcontinuaron": 7312,
      "Ġadelante": 7313,
      "Ġlugares": 7314,
      "oney": 7315,
      "ĠRamÃŃrez": 7316,
      "Ġbrillantez": 7317,
      "Ġpermanece": 7318,
      "ĠescribiÃ³": 7319,
      "ĠautÃ©ntica": 7320,
      "Ġfrances": 7321,
      "Ġmanejo": 7322,
      "ĠGreuther": 7323,
      "ĠVerlegh": 7324,
      "Ġamarga": 7325,
      "Ġtranquilidad": 7326,
      "ĠButarque": 7327,
      "ĠMarkus": 7328,
      "Ġescasas": 7329,
      "ĠEriksen": 7330,
      "Ġfaci": 7331,
      "ĠChristopher": 7332,
      "Ġleyen": 7333,
      "ĠGuardiola": 7334,
      "Ġrojib": 7335,
      "Amigos": 7336,
      "ĠDries": 7337,
      "ĠJuliÃ¡n": 7338,
      "ĠLlorente": 7339,
      "ĠJablonski": 7340,
      "ĠClausura": 7341,
      "ĠsÃ¡bado": 7342,
      "Ġconseg": 7343,
      "Symphor": 7344,
      "Ã©dric": 7345,
      "ĠTadiÄĩ": 7346,
      "Ġtorbellino": 7347,
      "Symphorien": 7348,
      "Giron": 7349,
      "duc": 7350,
      "fino": 7351,
      "jara": 7352,
      "kt": 7353,
      "ral": 7354,
      "veld": 7355,
      "yer": 7356,
      "Ã¥": 7357,
      "arl": 7358,
      "Ġsta": 7359,
      "Ġele": 7360,
      "Ġello": 7361,
      "cierto": 7362,
      "tiÃ¡n": 7363,
      "ĠSig": 7364,
      "Ġfil": 7365,
      "ĠAch": 7366,
      "lime": 7367,
      "Ġgato": 7368,
      "ĠBon": 7369,
      "ĠBall": 7370,
      "ĠBrestois": 7371,
      "occhi": 7372,
      "ĠEze": 7373,
      "adou": 7374,
      "oma": 7375,
      "Ġretag": 7376,
      "Ġhel": 7377,
      "ĠRocchi": 7378,
      "ĠPro": 7379,
      "laba": 7380,
      "Ġtreg": 7381,
      "ĠLatre": 7382,
      "ĠTardini": 7383,
      "maver": 7384,
      "ĠNos": 7385,
      "Ġprivile": 7386,
      "Ġprimaver": 7387,
      "ĠWeg": 7388,
      "ĠWink": 7389,
      "ĠWhite": 7390,
      "ĠOm": 7391,
      "ĠIpswich": 7392,
      "ĠAntes": 7393,
      "Ġamor": 7394,
      "ĠMarin": 7395,
      "ĠluciÃ³": 7396,
      "Ġpreoc": 7397,
      "gido": 7398,
      "Ġhaza": 7399,
      "ĠCher": 7400,
      "Ġtornaba": 7401,
      "ĠMandemakers": 7402,
      "iello": 7403,
      "ĠFranck": 7404,
      "Ġposible": 7405,
      "Ġmarea": 7406,
      "ĠWilly": 7407,
      "ĠCorinthi": 7408,
      "ĠBeÅŁiktaÅŁ": 7409,
      "ĠGraham": 7410,
      "Ġpermanecer": 7411,
      "Ġaumentando": 7412,
      "ĠmantenÃŃa": 7413,
      "ĠTheo": 7414,
      "ĠGaÃ«l": 7415,
      "Ġpensar": 7416,
      "Ġterminado": 7417,
      "Ġprometedor": 7418,
      "ĠSebastiÃ¡n": 7419,
      "ĠrecordÃ¡ndonos": 7420,
      "ĠBankes": 7421,
      "ĠBrand": 7422,
      "ĠmomentÃ¡neo": 7423,
      "Ġsublime": 7424,
      "Ġentrelazaban": 7425,
      "Ġfieles": 7426,
      "Ã¤fe": 7427,
      "ĠGrÃ¤fe": 7428,
      "Ġexperiencia": 7429,
      "Ġestuviera": 7430,
      "ĠMatthias": 7431,
      "ĠLinzer": 7432,
      "Ġnubes": 7433,
      "ĠVincent": 7434,
      "Ġosc": 7435,
      "ĠChap": 7436,
      "ĠRashford": 7437,
      "ĠÃŃdolo": 7438,
      "Ġabultado": 7439,
      "ĠJakob": 7440,
      "Ġetapa": 7441,
      "Girona": 7442,
      "Ġretaguardia": 7443,
      "ĠCorinthians": 7444,
      "74": 7445,
      "Vgg": 7446,
      "bar": 7447,
      "etin": 7448,
      "ku": 7449,
      "kar": 7450,
      "lÃ¡": 7451,
      "mones": 7452,
      "pVgg": 7453,
      "zol": 7454,
      "Ġdele": 7455,
      "onard": 7456,
      "arbr": 7457,
      "Ġcur": 7458,
      "domable": 7459,
      "Ġlados": 7460,
      "olini": 7461,
      "tillo": 7462,
      "ĠClos": 7463,
      "ĠSy": 7464,
      "ĠSter": 7465,
      "lec": 7466,
      "Ġfort": 7467,
      "ĠFirmin": 7468,
      "ĠgestiÃ³n": 7469,
      "Ġsuce": 7470,
      "ĠEse": 7471,
      "isiÃ³n": 7472,
      "allo": 7473,
      "Ġindomable": 7474,
      "ĠGrado": 7475,
      "ambi": 7476,
      "Ġmarca": 7477,
      "torial": 7478,
      "Ġpartidos": 7479,
      "ĠLeÃ³n": 7480,
      "ĠElland": 7481,
      "Ġviejo": 7482,
      "ĠNabi": 7483,
      "tiempo": 7484,
      "ĠWijn": 7485,
      "ĠOre": 7486,
      "Ġresis": 7487,
      "Ġtiempos": 7488,
      "vetic": 7489,
      "ĠIsi": 7490,
      "ĠIgor": 7491,
      "ĠmetiÃ³": 7492,
      "Ġcate": 7493,
      "ĠEngland": 7494,
      "Ġlograba": 7495,
      "Ġcorri": 7496,
      "Ġdiscre": 7497,
      "Ġdominante": 7498,
      "Ġproble": 7499,
      "Ġvertig": 7500,
      "quin": 7501,
      "ĠSanta": 7502,
      "ĠSander": 7503,
      "ĠJovetic": 7504,
      "ĠMarcos": 7505,
      "ĠMitch": 7506,
      "ĠRennes": 7507,
      "ĠDoetin": 7508,
      "ipol": 7509,
      "Ġpalab": 7510,
      "ĠFortaleza": 7511,
      "Ġdesartic": 7512,
      "ĠoptÃ³": 7513,
      "ĠDuvÃ¡n": 7514,
      "ĠsoÃ±aban": 7515,
      "ĠconsolidÃ¡ndose": 7516,
      "ĠDimitri": 7517,
      "ĠGuad": 7518,
      "ĠsacÃ³": 7519,
      "ĠGuida": 7520,
      "ĠFoden": 7521,
      "tikos": 7522,
      "ĠTurÃŃn": 7523,
      "Ġsurca": 7524,
      "ĠAyew": 7525,
      "ĠMolina": 7526,
      "Ġfrenar": 7527,
      "ĠÃ¡nimo": 7528,
      "Ġcertezas": 7529,
      "ĠArias": 7530,
      "Ġespecial": 7531,
      "Ġgalle": 7532,
      "ĠepÃŃ": 7533,
      "Ġreanuda": 7534,
      "ĠLÃ©onard": 7535,
      "ĠGeorginio": 7536,
      "ĠdesafÃŃo": 7537,
      "parkstadion": 7538,
      "ĠAthlitikos": 7539,
      "zquierdo": 7540,
      "Ġmarcharon": 7541,
      "Ġjoya": 7542,
      "ĠBalotelli": 7543,
      "Ġprincipio": 7544,
      "ĠEnnio": 7545,
      "ĠsirviÃ³": 7546,
      "Ġpulso": 7547,
      "ĠMikael": 7548,
      "Ġcroata": 7549,
      "ĠOrsolini": 7550,
      "Ġdescenso": 7551,
      "Ġrivalidad": 7552,
      "Ġvoz": 7553,
      "ĠJacob": 7554,
      "Ġtregua": 7555,
      "ĠSterling": 7556,
      "ĠNabil": 7557,
      "Ġvertigin": 7558,
      "ĠDoetinchem": 7559,
      "33": 7560,
      "Lorra": 7561,
      "ividad": 7562,
      "jada": 7563,
      "mÃ¶": 7564,
      "paban": 7565,
      "reros": 7566,
      "umi": 7567,
      "wo": 7568,
      "Ġdepre": 7569,
      "aray": 7570,
      "Ġcrea": 7571,
      "Ġcier": 7572,
      "Ġpau": 7573,
      "alh": 7574,
      "aloni": 7575,
      "asol": 7576,
      "ĠCE": 7577,
      "ĠCÃ©dric": 7578,
      "issa": 7579,
      "ĠSyn": 7580,
      "diano": 7581,
      "diera": 7582,
      "Ġfaro": 7583,
      "Ġvas": 7584,
      "Ġestr": 7585,
      "mpago": 7586,
      "rati": 7587,
      "Ġneg": 7588,
      "ĠrelÃ¡": 7589,
      "ĠRia": 7590,
      "ĠRick": 7591,
      "ĠPier": 7592,
      "ĠPeira": 7593,
      "Ġinalter": 7594,
      "lathlon": 7595,
      "ĠGÃ¼n": 7596,
      "ĠGabbi": 7597,
      "urice": 7598,
      "ĠTagli": 7599,
      "ĠJusto": 7600,
      "ĠNav": 7601,
      "vertz": 7602,
      "Ġapren": 7603,
      "ĠWi": 7604,
      "ĠOmar": 7605,
      "paolo": 7606,
      "mite": 7607,
      "Ġembesti": 7608,
      "desmos": 7609,
      "Ġempataron": 7610,
      "ĠMars": 7611,
      "Ġtodas": 7612,
      "tienen": 7613,
      "Ġcolmaron": 7614,
      "heem": 7615,
      "ĠSadar": 7616,
      "Ġdominado": 7617,
      "rard": 7618,
      "Ġvolver": 7619,
      "adini": 7620,
      "inau": 7621,
      "Ġtendr": 7622,
      "Ġbaja": 7623,
      "ĠbatiÃ³": 7624,
      "Ġfavoritos": 7625,
      "Ġoblig": 7626,
      "alatas": 7627,
      "Ġmagn": 7628,
      "Ġsorpresiva": 7629,
      "ĠMedell": 7630,
      "ĠMeinau": 7631,
      "elotti": 7632,
      "ansable": 7633,
      "Ġregis": 7634,
      "ĠHarm": 7635,
      "ĠHavertz": 7636,
      "Ġadelantaron": 7637,
      "ĠKonÃ©": 7638,
      "Ġincansable": 7639,
      "ĠcreaciÃ³n": 7640,
      "Ġguerreros": 7641,
      "ĠGuirass": 7642,
      "Ġimponerse": 7643,
      "Ġgigantes": 7644,
      "Ġimpregn": 7645,
      "ĠBernardo": 7646,
      "ĠGianpaolo": 7647,
      "Ġfinalizando": 7648,
      "Ġgrupo": 7649,
      "Ġajustada": 7650,
      "ĠdecepciÃ³n": 7651,
      "ĠAnderson": 7652,
      "Ġsimplemente": 7653,
      "ĠanfitriÃ³n": 7654,
      "ĠOsmers": 7655,
      "ĠFilathlon": 7656,
      "ĠveÃŃan": 7657,
      "niy": 7658,
      "Ġregreso": 7659,
      "ĠPlata": 7660,
      "Ġencaminar": 7661,
      "Ġincremen": 7662,
      "ĠportuguÃ©s": 7663,
      "ĠGeorgios": 7664,
      "ĠHooper": 7665,
      "Ġhermoso": 7666,
      "Ġprodigio": 7667,
      "Ġestructurado": 7668,
      "Ġentusiasmo": 7669,
      "Ġonce": 7670,
      "Ġstadion": 7671,
      "ĠAchraf": 7672,
      "ĠOmilos": 7673,
      "ĠfortÃŃn": 7674,
      "Lorraine": 7675,
      "Ġpauta": 7676,
      "ĠSyndesmos": 7677,
      "ĠrelÃ¡mpago": 7678,
      "ĠRiazor": 7679,
      "ĠPeiraios": 7680,
      "ĠGabbiadini": 7681,
      "alatasaray": 7682,
      "ĠMedellÃŃn": 7683,
      "ĠGuirassy": 7684,
      "Ro": 7685,
      "acidad": 7686,
      "itsch": 7687,
      "lando": 7688,
      "rner": 7689,
      "wy": 7690,
      "zÃ³n": 7691,
      "Ã¦": 7692,
      "Ġeran": 7693,
      "ĠediciÃ³n": 7694,
      "Ġdedos": 7695,
      "Ġdetener": 7696,
      "eni": 7697,
      "erva": 7698,
      "doul": 7699,
      "andar": 7700,
      "alina": 7701,
      "cidos": 7702,
      "Ġlam": 7703,
      "Ġmero": 7704,
      "tega": 7705,
      "timi": 7706,
      "ĠChe": 7707,
      "ĠCampo": 7708,
      "ĠSK": 7709,
      "ĠSmith": 7710,
      "dador": 7711,
      "dibu": 7712,
      "dicional": 7713,
      "ĠAviv": 7714,
      "Ġvest": 7715,
      "ĠLins": 7716,
      "ĠFabri": 7717,
      "ĠMaccabi": 7718,
      "ĠBad": 7719,
      "ĠEden": 7720,
      "ĠEvan": 7721,
      "Ġdesmarc": 7722,
      "Ġdesdibu": 7723,
      "Ġnarra": 7724,
      "ĠDela": 7725,
      "roga": 7726,
      "ĠPie": 7727,
      "Ġtramo": 7728,
      "Ġjusticia": 7729,
      "ĠTres": 7730,
      "maba": 7731,
      "ĠNie": 7732,
      "ienvenidos": 7733,
      "renalina": 7734,
      "Ġdiver": 7735,
      "Ġcatal": 7736,
      "ĠReading": 7737,
      "Ġentretiempo": 7738,
      "ĠRoy": 7739,
      "Ġacab": 7740,
      "ventry": 7741,
      "tienes": 7742,
      "Ġprovoc": 7743,
      "Ġtraslada": 7744,
      "ĠcÃ³rner": 7745,
      "Ġtenacidad": 7746,
      "Ġbil": 7747,
      "ĠJuve": 7748,
      "ĠCoventry": 7749,
      "Ġmucha": 7750,
      "Ġobje": 7751,
      "ĠBerardi": 7752,
      "ĠdudÃ³": 7753,
      "Ġtraigo": 7754,
      "Ġtira": 7755,
      "Ġadrenalina": 7756,
      "urrida": 7757,
      "ĠStephan": 7758,
      "Ġfeudo": 7759,
      "ĠconcretÃ³": 7760,
      "Ġinterrup": 7761,
      "Ġganar": 7762,
      "Ġcelebraba": 7763,
      "ĠPep": 7764,
      "ĠQarabaÄŁ": 7765,
      "Ġmoneg": 7766,
      "Ġrendir": 7767,
      "Ġvaler": 7768,
      "Ġasegurar": 7769,
      "ĠAbdoul": 7770,
      "Ã¸r": 7771,
      "ĠSwaro": 7772,
      "ĠNeil": 7773,
      "Ġguardaba": 7774,
      "ĠGerland": 7775,
      "ĠDons": 7776,
      "Å¡iÄĩ": 7777,
      "ĠorganizaciÃ³n": 7778,
      "Ġplanteo": 7779,
      "Ġrosson": 7780,
      "ĠMauricio": 7781,
      "Ġpuertas": 7782,
      "Ġparisino": 7783,
      "ĠVolksparkstadion": 7784,
      "Ġagresivo": 7785,
      "Ġidentidad": 7786,
      "ĠBamba": 7787,
      "hinha": 7788,
      "ĠCentral": 7789,
      "Ġterritorial": 7790,
      "ĠAleksandar": 7791,
      "ĠatÃ³nitos": 7792,
      "ĠMassimi": 7793,
      "ĠesplÃ©n": 7794,
      "Ġsuspenso": 7795,
      "Ġafloja": 7796,
      "Ġaumenta": 7797,
      "Ġentrenador": 7798,
      "ĠDavy": 7799,
      "ĠGregoritsch": 7800,
      "Ġreservado": 7801,
      "Ġresquicio": 7802,
      "monese": 7803,
      "Ġproblemas": 7804,
      "ĠepÃŃlogo": 7805,
      "ĠreanudaciÃ³n": 7806,
      "Ġdepredador": 7807,
      "ĠLinssen": 7808,
      "ĠFabrizio": 7809,
      "Ġinterrupciones": 7810,
      "ĠSwarovski": 7811,
      "Brentford": 7812,
      "Bienvenidos": 7813,
      "Dijon": 7814,
      "Philip": 7815,
      "Sheffield": 7816,
      "dando": 7817,
      "dbalski": 7818,
      "gran": 7819,
      "ken": 7820,
      "kir": 7821,
      "mÃ¡s": 7822,
      "sto": 7823,
      "stein": 7824,
      "Ġdetiene": 7825,
      "erue": 7826,
      "eso": 7827,
      "Ġsos": 7828,
      "osia": 7829,
      "tiki": 7830,
      "isa": 7831,
      "ĠStan": 7832,
      "die": 7833,
      "dible": 7834,
      "Ã¡cer": 7835,
      "ĠAh": 7836,
      "rique": 7837,
      "ĠLuego": 7838,
      "ĠMy": 7839,
      "ĠBacca": 7840,
      "ĠEt": 7841,
      "Ã©re": 7842,
      "Ġhol": 7843,
      "Ġhum": 7844,
      "teri": 7845,
      "portiva": 7846,
      "ĠTiago": 7847,
      "Ġestallaba": 7848,
      "ĠKos": 7849,
      "ĠKai": 7850,
      "ĠWard": 7851,
      "meij": 7852,
      "thian": 7853,
      "thess": 7854,
      "Ġascen": 7855,
      "cao": 7856,
      "ĠReus": 7857,
      "umental": 7858,
      "Ã¼ero": 7859,
      "Ã¼ck": 7860,
      "ĠCalvar": 7861,
      "ĠFudbalski": 7862,
      "Ġconvirti": 7863,
      "izz": 7864,
      "Ġconserv": 7865,
      "Ġcaras": 7866,
      "Ġpesadi": 7867,
      "ĠManÃ©": 7868,
      "ĠSankt": 7869,
      "ĠValenciennes": 7870,
      "Ġfirmes": 7871,
      "Ġposibilidades": 7872,
      "ĠocÃ©": 7873,
      "marino": 7874,
      "Ġcuento": 7875,
      "kios": 7876,
      "Ġmateri": 7877,
      "alajara": 7878,
      "ĠMoun": 7879,
      "Ġbrillaba": 7880,
      "ĠRaheem": 7881,
      "ĠNicosia": 7882,
      "Ġadvers": 7883,
      "Ġilusi": 7884,
      "Ġenfrentar": 7885,
      "ĠBraun": 7886,
      "Ġconcretamente": 7887,
      "oks": 7888,
      "Ġlibre": 7889,
      "ĠBajo": 7890,
      "Ġdesbordado": 7891,
      "gues": 7892,
      "ĠHenrik": 7893,
      "ckpool": 7894,
      "ĠMateo": 7895,
      "ĠNacho": 7896,
      "ĠFabiÃ¡n": 7897,
      "ĠPetersen": 7898,
      "Antes": 7899,
      "ĠDelerue": 7900,
      "Ġestocada": 7901,
      "ĠIsma": 7902,
      "Ġdesvane": 7903,
      "ĠWesley": 7904,
      "ĠAgÃ¼ero": 7905,
      "Ġmuralla": 7906,
      "Ġescapar": 7907,
      "Ġdecre": 7908,
      "aldum": 7909,
      "ĠWebb": 7910,
      "ĠKalou": 7911,
      "ĠWattener": 7912,
      "Ġpelear": 7913,
      "ĠdeslumbrÃ³": 7914,
      "ĠPellets": 7915,
      "Ġneutralizar": 7916,
      "Ġvulner": 7917,
      "ĠViktor": 7918,
      "Ġestuvieran": 7919,
      "ĠBrooks": 7920,
      "ĠGreenwood": 7921,
      "Ġaquel": 7922,
      "...": 7923,
      "Ġgladiadores": 7924,
      "Ġrenova": 7925,
      "ĠAmaury": 7926,
      "ĠÃľn": 7927,
      "ĠCremonese": 7928,
      "Ġguinda": 7929,
      "ĠPellegr": 7930,
      "ĠtÃ©rminos": 7931,
      "ĠÃĸz": 7932,
      "ĠcohesiÃ³n": 7933,
      "Ġeleva": 7934,
      "ĠWinkmann": 7935,
      "Ġcurso": 7936,
      "ĠGuadalajara": 7937,
      "alonikios": 7938,
      "Ġtrasladamos": 7939,
      "Philippe": 7940,
      "thessalonikios": 7941,
      "ĠCalvarese": 7942,
      "Pierre": 7943,
      "Sto": 7944,
      "dÃ©": 7945,
      "ef": 7946,
      "him": 7947,
      "jen": 7948,
      "jani": 7949,
      "jevic": 7950,
      "mand": 7951,
      "ot": 7952,
      "vanovic": 7953,
      "arres": 7954,
      "Ġcrec": 7955,
      "unto": 7956,
      "olore": 7957,
      "islav": 7958,
      "ĠSlo": 7959,
      "Ġcontras": 7960,
      "Ġcondu": 7961,
      "Ġfri": 7962,
      "ĠAmine": 7963,
      "chuk": 7964,
      "ĠFuer": 7965,
      "ÃŃble": 7966,
      "bios": 7967,
      "ĠBren": 7968,
      "Ġdestin": 7969,
      "ĠRoo": 7970,
      "ĠDer": 7971,
      "ĠDur": 7972,
      "iaba": 7973,
      "Ġinces": 7974,
      "Ġintimi": 7975,
      "ĠGent": 7976,
      "ĠTric": 7977,
      "activo": 7978,
      "ĠNk": 7979,
      "ĠKras": 7980,
      "ieu": 7981,
      "ĠUnipol": 7982,
      "Ã±Ã³": 7983,
      "Ġruido": 7984,
      "mira": 7985,
      "Ġgrab": 7986,
      "etti": 7987,
      "ĠAlfonso": 7988,
      "ĠAng": 7989,
      "Ġpases": 7990,
      "naval": 7991,
      "Ġperd": 7992,
      "ĠCitt": 7993,
      "Ġexten": 7994,
      "ĠrÃ¡fa": 7995,
      "Ġfuertes": 7996,
      "Ġcontrarres": 7997,
      "Ġconstantes": 7998,
      "Ġcarnaval": 7999
    },
    "merges": [
      [
        "Ġ",
        "e"
      ],
      [
        "d",
        "e"
      ],
      [
        "Ġ",
        "de"
      ],
      [
        "Ġ",
        "l"
      ],
      [
        "o",
        "n"
      ],
      [
        "e",
        "n"
      ],
      [
        "t",
        "a"
      ],
      [
        "a",
        "r"
      ],
      [
        "Ġ",
        "a"
      ],
      [
        "e",
        "r"
      ],
      [
        "Ã",
        "³"
      ],
      [
        "Ġ",
        "c"
      ],
      [
        "e",
        "s"
      ],
      [
        "u",
        "n"
      ],
      [
        "d",
        "o"
      ],
      [
        "Ġ",
        "s"
      ],
      [
        "Ġe",
        "l"
      ],
      [
        "a",
        "n"
      ],
      [
        "i",
        "n"
      ],
      [
        "Ġ",
        "p"
      ],
      [
        "u",
        "e"
      ],
      [
        "Ġe",
        "n"
      ],
      [
        "o",
        "s"
      ],
      [
        "a",
        "l"
      ],
      [
        "c",
        "i"
      ],
      [
        "Ġl",
        "a"
      ],
      [
        "Ġ",
        "un"
      ],
      [
        "o",
        "r"
      ],
      [
        "Ġ",
        "m"
      ],
      [
        "t",
        "r"
      ],
      [
        "t",
        "e"
      ],
      [
        "o",
        "l"
      ],
      [
        "a",
        "s"
      ],
      [
        "q",
        "ue"
      ],
      [
        "t",
        "i"
      ],
      [
        "Ġ",
        "C"
      ],
      [
        "Ġ",
        "que"
      ],
      [
        "Ġs",
        "e"
      ],
      [
        "i",
        "s"
      ],
      [
        "i",
        "c"
      ],
      [
        "Ġ",
        "S"
      ],
      [
        "Ġc",
        "on"
      ],
      [
        "r",
        "e"
      ],
      [
        "d",
        "a"
      ],
      [
        "d",
        "i"
      ],
      [
        "Ã",
        "¡"
      ],
      [
        "l",
        "e"
      ],
      [
        "Ġ",
        "f"
      ],
      [
        "Ġ",
        "A"
      ],
      [
        "Ġ",
        "v"
      ],
      [
        "r",
        "i"
      ],
      [
        "t",
        "o"
      ],
      [
        "Ġe",
        "s"
      ],
      [
        "Ġ",
        "L"
      ],
      [
        "m",
        "p"
      ],
      [
        "Ġ",
        "y"
      ],
      [
        "c",
        "h"
      ],
      [
        "Ġ",
        "F"
      ],
      [
        "Ġl",
        "os"
      ],
      [
        "Ġde",
        "l"
      ],
      [
        "l",
        "i"
      ],
      [
        "r",
        "es"
      ],
      [
        "Ġ",
        "g"
      ],
      [
        "Ã³",
        "n"
      ],
      [
        "tr",
        "o"
      ],
      [
        "Ġ",
        "M"
      ],
      [
        "Ã",
        "Ń"
      ],
      [
        "Ġ",
        "("
      ],
      [
        "t",
        "en"
      ],
      [
        "b",
        "i"
      ],
      [
        "Ġp",
        "ar"
      ],
      [
        "Ġ",
        "-"
      ],
      [
        "l",
        "u"
      ],
      [
        "Ċ",
        "Ġ"
      ],
      [
        "Ġ",
        "2"
      ],
      [
        "<",
        "/"
      ],
      [
        "Ġs",
        "u"
      ],
      [
        "ta",
        "n"
      ],
      [
        "Ġ",
        "B"
      ],
      [
        "o",
        "c"
      ],
      [
        "Ġ",
        "E"
      ],
      [
        "a",
        "do"
      ],
      [
        "o",
        "m"
      ],
      [
        "lu",
        "b"
      ],
      [
        "t",
        "b"
      ],
      [
        "Ġun",
        "a"
      ],
      [
        "in",
        "u"
      ],
      [
        "Ġde",
        "s"
      ],
      [
        "r",
        "a"
      ],
      [
        "u",
        "l"
      ],
      [
        "Ġm",
        "inu"
      ],
      [
        "an",
        "do"
      ],
      [
        "Ġ",
        "1"
      ],
      [
        "ic",
        "a"
      ],
      [
        "Ġa",
        "l"
      ],
      [
        "Ã",
        "©"
      ],
      [
        "s",
        "ta"
      ],
      [
        "r",
        "on"
      ],
      [
        "Ġ",
        "n"
      ],
      [
        "Ġ",
        "re"
      ],
      [
        "ĠC",
        "lub"
      ],
      [
        "Ġ",
        "h"
      ],
      [
        "g",
        "a"
      ],
      [
        "t",
        "s"
      ],
      [
        "oc",
        "al"
      ],
      [
        "u",
        "i"
      ],
      [
        "ci",
        "a"
      ],
      [
        "t",
        "os"
      ],
      [
        "Ġ",
        "R"
      ],
      [
        "T",
        "A"
      ],
      [
        "S",
        "TA"
      ],
      [
        "Ġ",
        "D"
      ],
      [
        "T",
        "S"
      ],
      [
        "c",
        "ron"
      ],
      [
        "sta",
        "ts"
      ],
      [
        "STA",
        "TS"
      ],
      [
        "cron",
        "ica"
      ],
      [
        "e",
        "l"
      ],
      [
        "r",
        "o"
      ],
      [
        "Ġ",
        "P"
      ],
      [
        "Ġ",
        "d"
      ],
      [
        "is",
        "i"
      ],
      [
        "Ġen",
        "c"
      ],
      [
        "di",
        "o"
      ],
      [
        "ci",
        "Ã³n"
      ],
      [
        "i",
        "a"
      ],
      [
        "al",
        "l"
      ],
      [
        "ta",
        "do"
      ],
      [
        "e",
        "c"
      ],
      [
        "g",
        "o"
      ],
      [
        "Ġ",
        "in"
      ],
      [
        "l",
        "a"
      ],
      [
        "ar",
        "c"
      ],
      [
        "Ġg",
        "ol"
      ],
      [
        "t",
        "er"
      ],
      [
        "v",
        "i"
      ],
      [
        "u",
        "en"
      ],
      [
        "q",
        "ui"
      ],
      [
        "b",
        "a"
      ],
      [
        "Ã",
        "º"
      ],
      [
        "u",
        "s"
      ],
      [
        "isi",
        "tan"
      ],
      [
        "Ã¡",
        "r"
      ],
      [
        "ÃŃ",
        "a"
      ],
      [
        "Ġn",
        "o"
      ],
      [
        "Ã¡r",
        "bi"
      ],
      [
        "Ã¡rbi",
        "tro"
      ],
      [
        "s",
        "i"
      ],
      [
        "ci",
        "on"
      ],
      [
        "Ġ",
        "G"
      ],
      [
        "ch",
        "a"
      ],
      [
        "Ġ",
        "tr"
      ],
      [
        "a",
        "m"
      ],
      [
        "es",
        "ta"
      ],
      [
        "Ġ2",
        "0"
      ],
      [
        "t",
        "u"
      ],
      [
        "o",
        "o"
      ],
      [
        "Ġ",
        "b"
      ],
      [
        "Ġ",
        "j"
      ],
      [
        "en",
        "te"
      ],
      [
        "Ġm",
        "arc"
      ],
      [
        "Ġp",
        "or"
      ],
      [
        "i",
        "l"
      ],
      [
        "Ġminu",
        "tos"
      ],
      [
        "isitan",
        "te"
      ],
      [
        "t",
        "y"
      ],
      [
        "tb",
        "all"
      ],
      [
        "er",
        "o"
      ],
      [
        "oo",
        "tball"
      ],
      [
        "u",
        "r"
      ],
      [
        "m",
        "o"
      ],
      [
        "Ġenc",
        "uen"
      ],
      [
        "s",
        "e"
      ],
      [
        "ten",
        "cia"
      ],
      [
        "res",
        "ul"
      ],
      [
        "Ġpar",
        "a"
      ],
      [
        "Ġ",
        "V"
      ],
      [
        "Ġes",
        "p"
      ],
      [
        "resul",
        "tado"
      ],
      [
        "Ġencuen",
        "tro"
      ],
      [
        "ti",
        "do"
      ],
      [
        "is",
        "tencia"
      ],
      [
        "t",
        "or"
      ],
      [
        "tb",
        "ol"
      ],
      [
        "i",
        "g"
      ],
      [
        "p",
        "or"
      ],
      [
        "E",
        "l"
      ],
      [
        "li",
        "ga"
      ],
      [
        "Ġ",
        "3"
      ],
      [
        "m",
        "b"
      ],
      [
        "Ġl",
        "ocal"
      ],
      [
        "da",
        "d"
      ],
      [
        "Ġc",
        "om"
      ],
      [
        "f",
        "i"
      ],
      [
        "ĠF",
        "ootball"
      ],
      [
        "Ġ",
        "H"
      ],
      [
        "v",
        "o"
      ],
      [
        "t",
        "es"
      ],
      [
        "Ġde",
        "j"
      ],
      [
        "ta",
        "r"
      ],
      [
        "ĠL",
        "a"
      ],
      [
        "Ġpar",
        "tido"
      ],
      [
        "Ġminu",
        "to"
      ],
      [
        "r",
        "an"
      ],
      [
        "Ġ",
        "T"
      ],
      [
        "f",
        "e"
      ],
      [
        "Ġe",
        "qui"
      ],
      [
        "Ġ",
        "J"
      ],
      [
        "Ġ",
        "4"
      ],
      [
        "i",
        "o"
      ],
      [
        "m",
        "a"
      ],
      [
        "l",
        "o"
      ],
      [
        "g",
        "ol"
      ],
      [
        "Ãº",
        "tbol"
      ],
      [
        "t",
        "Ã³"
      ],
      [
        "z",
        "a"
      ],
      [
        "Ġequi",
        "p"
      ],
      [
        "a",
        "c"
      ],
      [
        "ado",
        "r"
      ],
      [
        "Ġf",
        "ue"
      ],
      [
        "ĠL",
        "e"
      ],
      [
        "fe",
        "cha"
      ],
      [
        "Ġla",
        "s"
      ],
      [
        "gol",
        "es"
      ],
      [
        ">",
        "<"
      ],
      [
        ">",
        "</"
      ],
      [
        "l",
        "ocal"
      ],
      [
        "s",
        "ty"
      ],
      [
        "v",
        "isitante"
      ],
      [
        "esta",
        "dio"
      ],
      [
        "sty",
        "le"
      ],
      [
        "m",
        "er"
      ],
      [
        "Ġ",
        "U"
      ],
      [
        "ic",
        "o"
      ],
      [
        "Ġes",
        "ta"
      ],
      [
        "f",
        "en"
      ],
      [
        "Ġse",
        "g"
      ],
      [
        "ĠE",
        "l"
      ],
      [
        "a",
        "b"
      ],
      [
        "Ġv",
        "i"
      ],
      [
        "v",
        "a"
      ],
      [
        "Ġ",
        "N"
      ],
      [
        "a",
        "g"
      ],
      [
        "a",
        "da"
      ],
      [
        "as",
        "istencia"
      ],
      [
        "Ġ",
        "5"
      ],
      [
        "Ġmarc",
        "ador"
      ],
      [
        "Ġ",
        "o"
      ],
      [
        "v",
        "er"
      ],
      [
        "Ġa",
        "n"
      ],
      [
        "l",
        "l"
      ],
      [
        "Â",
        "¡"
      ],
      [
        "z",
        "o"
      ],
      [
        "Ġ",
        "K"
      ],
      [
        "Ġp",
        "ri"
      ],
      [
        "Ġc",
        "u"
      ],
      [
        "mp",
        "o"
      ],
      [
        "en",
        "ta"
      ],
      [
        "ti",
        "e"
      ],
      [
        "Ġl",
        "le"
      ],
      [
        "ti",
        "c"
      ],
      [
        "i",
        "on"
      ],
      [
        "Ġ",
        "6"
      ],
      [
        "Ġl",
        "o"
      ],
      [
        "Ġpri",
        "mer"
      ],
      [
        "tor",
        "ia"
      ],
      [
        "an",
        "te"
      ],
      [
        "ĠS",
        "ta"
      ],
      [
        "i",
        "e"
      ],
      [
        "Ġseg",
        "un"
      ],
      [
        "Ġ",
        "7"
      ],
      [
        "E",
        "n"
      ],
      [
        ".",
        "</"
      ],
      [
        "Ġa",
        "fi"
      ],
      [
        "Ã¡",
        "s"
      ],
      [
        "Ġcom",
        "o"
      ],
      [
        "i",
        "en"
      ],
      [
        "ci",
        "o"
      ],
      [
        "an",
        "o"
      ],
      [
        "ĠU",
        "n"
      ],
      [
        "Ġ",
        "Â¡"
      ],
      [
        "Ġa",
        "p"
      ],
      [
        "m",
        "in"
      ],
      [
        "Ġ",
        "i"
      ],
      [
        "j",
        "a"
      ],
      [
        "Ġ",
        "W"
      ],
      [
        "s",
        "o"
      ],
      [
        "Ġequip",
        "o"
      ],
      [
        "Ġ",
        "8"
      ],
      [
        "s",
        "a"
      ],
      [
        "Ġ20",
        "1"
      ],
      [
        "p",
        "i"
      ],
      [
        "cion",
        "es"
      ],
      [
        "t",
        "in"
      ],
      [
        "ar",
        "on"
      ],
      [
        "m",
        "e"
      ],
      [
        "p",
        "u"
      ],
      [
        "Ġesp",
        "ec"
      ],
      [
        "Ġin",
        "ten"
      ],
      [
        "Ġf",
        "Ãºtbol"
      ],
      [
        "Ġde",
        "fen"
      ],
      [
        "Ġ",
        "O"
      ],
      [
        "r",
        "en"
      ],
      [
        "tr",
        "e"
      ],
      [
        "O",
        "O"
      ],
      [
        "Ġe",
        "mo"
      ],
      [
        "r",
        "Ã³"
      ],
      [
        "Ġa",
        "b"
      ],
      [
        "Ġ",
        "res"
      ],
      [
        "tr",
        "Ã³"
      ],
      [
        "Ġ",
        "tie"
      ],
      [
        "Ġm",
        "Ã¡s"
      ],
      [
        "Ġtie",
        "mpo"
      ],
      [
        "Ġ20",
        "2"
      ],
      [
        "ĠM",
        "a"
      ],
      [
        "v",
        "e"
      ],
      [
        "ĠS",
        "por"
      ],
      [
        "t",
        "h"
      ],
      [
        "in",
        "al"
      ],
      [
        "Ġ",
        "tar"
      ],
      [
        "de",
        "n"
      ],
      [
        "p",
        "a"
      ],
      [
        "on",
        "de"
      ],
      [
        "d",
        "as"
      ],
      [
        "i",
        "r"
      ],
      [
        "t",
        "Ã¡"
      ],
      [
        "Ġv",
        "ic"
      ],
      [
        "a",
        "y"
      ],
      [
        "Ġ",
        "Ã¡rbitro"
      ],
      [
        "Ġvic",
        "toria"
      ],
      [
        "Ã",
        "±"
      ],
      [
        "Ġcu",
        "ando"
      ],
      [
        "Ġp",
        "ero"
      ],
      [
        "Ġd",
        "onde"
      ],
      [
        "Ġs",
        "in"
      ],
      [
        "Ġab",
        "ri"
      ],
      [
        "ar",
        "go"
      ],
      [
        "tu",
        "vo"
      ],
      [
        "Ġa",
        "s"
      ],
      [
        "Ġ",
        "do"
      ],
      [
        "Ġf",
        "inal"
      ],
      [
        "ri",
        "o"
      ],
      [
        "l",
        "ar"
      ],
      [
        "Ġdej",
        "Ã³"
      ],
      [
        "Ġvi",
        "b"
      ],
      [
        "Ã©",
        "s"
      ],
      [
        "Ġm",
        "an"
      ],
      [
        "Ġ",
        "r"
      ],
      [
        "m",
        "i"
      ],
      [
        "c",
        "a"
      ],
      [
        "Ġ",
        "di"
      ],
      [
        "ue",
        "go"
      ],
      [
        "Ġdes",
        "a"
      ],
      [
        "ĠC",
        "on"
      ],
      [
        "u",
        "er"
      ],
      [
        "Ġe",
        "mb"
      ],
      [
        "Ġtar",
        "de"
      ],
      [
        "Ġ",
        "I"
      ],
      [
        "Ġm",
        "e"
      ],
      [
        "tr",
        "a"
      ],
      [
        "Ġg",
        "ra"
      ],
      [
        "0",
        "0"
      ],
      [
        "ado",
        "s"
      ],
      [
        "z",
        "Ã³"
      ],
      [
        "Ġe",
        "mp"
      ],
      [
        "e",
        "t"
      ],
      [
        "o",
        "mp"
      ],
      [
        "Ġp",
        "res"
      ],
      [
        "Ġc",
        "a"
      ],
      [
        "ĠA",
        "l"
      ],
      [
        "Ġj",
        "uego"
      ],
      [
        "t",
        "on"
      ],
      [
        "Ġsu",
        "s"
      ],
      [
        "ĠR",
        "e"
      ],
      [
        "Ġdes",
        "c"
      ],
      [
        "Ġ",
        "9"
      ],
      [
        "Ġemb",
        "argo"
      ],
      [
        "i",
        "Ã³n"
      ],
      [
        "ag",
        "ue"
      ],
      [
        "Ġm",
        "os"
      ],
      [
        "ol",
        "o"
      ],
      [
        "enta",
        "ja"
      ],
      [
        "ĠLe",
        "ague"
      ],
      [
        "Ġsegun",
        "do"
      ],
      [
        "ul",
        "o"
      ],
      [
        "ĠE",
        "n"
      ],
      [
        "ti",
        "va"
      ],
      [
        "ĠA",
        "n"
      ],
      [
        "de",
        "s"
      ],
      [
        "tÃ¡",
        "c"
      ],
      [
        "g",
        "Ã³"
      ],
      [
        "Ġen",
        "tre"
      ],
      [
        "u",
        "m"
      ],
      [
        "Ġv",
        "entaja"
      ],
      [
        "t",
        "un"
      ],
      [
        "i",
        "ta"
      ],
      [
        "Ã",
        "¼"
      ],
      [
        "ĠSta",
        "di"
      ],
      [
        "Ġ",
        "tan"
      ],
      [
        "n",
        "e"
      ],
      [
        "Ġlo",
        "g"
      ],
      [
        "Ġse",
        "ll"
      ],
      [
        "ch",
        "e"
      ],
      [
        "f",
        "or"
      ],
      [
        "p",
        "e"
      ],
      [
        "de",
        "r"
      ],
      [
        "Ġemp",
        "a"
      ],
      [
        "i",
        "m"
      ],
      [
        "Ġlocal",
        "es"
      ],
      [
        "ĠR",
        "o"
      ],
      [
        "ĠC",
        "al"
      ],
      [
        "ĠF",
        "C"
      ],
      [
        "Ã¡",
        "n"
      ],
      [
        "Ġ",
        "0"
      ],
      [
        "Ġi",
        "mp"
      ],
      [
        "Ġa",
        "m"
      ],
      [
        "Ġc",
        "or"
      ],
      [
        "Ġh",
        "i"
      ],
      [
        "in",
        "g"
      ],
      [
        "ĠM",
        "ar"
      ],
      [
        "er",
        "on"
      ],
      [
        "Ġafi",
        "cion"
      ],
      [
        "Ġ",
        "qui"
      ],
      [
        "Ġ",
        "to"
      ],
      [
        "Ġaficion",
        "ados"
      ],
      [
        "al",
        "i"
      ],
      [
        "p",
        "er"
      ],
      [
        "Ġa",
        "c"
      ],
      [
        "Ġc",
        "lar"
      ],
      [
        "Ġesp",
        "er"
      ],
      [
        "o",
        "ci"
      ],
      [
        "Ġl",
        "u"
      ],
      [
        "h",
        "a"
      ],
      [
        "Ġdefen",
        "sa"
      ],
      [
        "Ġd",
        "is"
      ],
      [
        "an",
        "za"
      ],
      [
        "Ġc",
        "er"
      ],
      [
        "tic",
        "o"
      ],
      [
        "p",
        "la"
      ],
      [
        "Ġc",
        "omp"
      ],
      [
        "Ġp",
        "as"
      ],
      [
        "n",
        "a"
      ],
      [
        "tan",
        "do"
      ],
      [
        "ol",
        "i"
      ],
      [
        "Ġqui",
        "en"
      ],
      [
        "ĠCal",
        "cio"
      ],
      [
        "ic",
        "ano"
      ],
      [
        "ta",
        "l"
      ],
      [
        ".",
        ")"
      ],
      [
        "Ġj",
        "u"
      ],
      [
        "Ġ",
        "ri"
      ],
      [
        "ur",
        "g"
      ],
      [
        "ten",
        "se"
      ],
      [
        "ci",
        "Ã³"
      ],
      [
        "Ġhi",
        "zo"
      ],
      [
        "rio",
        "pla"
      ],
      [
        "riopla",
        "tense"
      ],
      [
        "ti",
        "Ã³"
      ],
      [
        "ue",
        "lo"
      ],
      [
        "Ġdej",
        "ando"
      ],
      [
        "Ġtr",
        "an"
      ],
      [
        "m",
        "as"
      ],
      [
        "Ġin",
        "i"
      ],
      [
        "v",
        "en"
      ],
      [
        "Ġ",
        "ar"
      ],
      [
        "Ġenc",
        "on"
      ],
      [
        "Ġabri",
        "Ã³"
      ],
      [
        "ĠS",
        "in"
      ],
      [
        "Ġp",
        "re"
      ],
      [
        "ĠF",
        "Ãºtbol"
      ],
      [
        "tr",
        "as"
      ],
      [
        "Ġtr",
        "i"
      ],
      [
        "Ġespec",
        "tado"
      ],
      [
        "Ġ9",
        "0"
      ],
      [
        "Ġvib",
        "ran"
      ],
      [
        "Ġtan",
        "to"
      ],
      [
        "Ġlog",
        "rÃ³"
      ],
      [
        "Ġcom",
        "en"
      ],
      [
        "Ġlle",
        "v"
      ],
      [
        "r",
        "om"
      ],
      [
        "Ġesta",
        "dio"
      ],
      [
        "j",
        "o"
      ],
      [
        "en",
        "to"
      ],
      [
        "Ġlle",
        "gÃ³"
      ],
      [
        "Ġd",
        "uelo"
      ],
      [
        "en",
        "as"
      ],
      [
        "Ġmos",
        "trÃ³"
      ],
      [
        "b",
        "le"
      ],
      [
        "ĠS",
        "er"
      ],
      [
        "vi",
        "Ã³"
      ],
      [
        "er",
        "a"
      ],
      [
        "v",
        "al"
      ],
      [
        "Ġespectado",
        "res"
      ],
      [
        "Ġvibran",
        "te"
      ],
      [
        "ĠD",
        "e"
      ],
      [
        "c",
        "o"
      ],
      [
        "Ġempa",
        "te"
      ],
      [
        "a",
        "ciÃ³n"
      ],
      [
        "d",
        "ri"
      ],
      [
        "Ġespec",
        "tÃ¡c"
      ],
      [
        "ĠespectÃ¡c",
        "ulo"
      ],
      [
        "Ġv",
        "isitante"
      ],
      [
        "Ġp",
        "un"
      ],
      [
        "n",
        "ico"
      ],
      [
        "er",
        "n"
      ],
      [
        "r",
        "ÃŃa"
      ],
      [
        "c",
        "en"
      ],
      [
        "g",
        "i"
      ],
      [
        "Ġp",
        "er"
      ],
      [
        "ar",
        "io"
      ],
      [
        "ter",
        "o"
      ],
      [
        "i",
        "ga"
      ],
      [
        "ig",
        "ue"
      ],
      [
        "Ġequip",
        "os"
      ],
      [
        "Ġb",
        "us"
      ],
      [
        "ĠC",
        "i"
      ],
      [
        "Ġs",
        "i"
      ],
      [
        "ig",
        "u"
      ],
      [
        "in",
        "o"
      ],
      [
        "ti",
        "en"
      ],
      [
        "b",
        "er"
      ],
      [
        "Ġc",
        "ol"
      ],
      [
        "ĠF",
        "u"
      ],
      [
        "Ġafi",
        "ciÃ³n"
      ],
      [
        "i",
        "te"
      ],
      [
        "Ġ",
        "te"
      ],
      [
        "us",
        "o"
      ],
      [
        "Ġh",
        "in"
      ],
      [
        "u",
        "Ã©"
      ],
      [
        "Ġv",
        "isitan"
      ],
      [
        "d",
        "Ã³"
      ],
      [
        "Ġvisitan",
        "tes"
      ],
      [
        "a",
        "z"
      ],
      [
        "Ġas",
        "istencia"
      ],
      [
        "Ġm",
        "ita"
      ],
      [
        "Ġgra",
        "das"
      ],
      [
[...]
